#include "model_data.h"

#include <cstdint>


alignas(16)  const unsigned char model_data[] = {
  0x1c, 0x00, 0x00, 0x00, 0x54, 0x46, 0x4c, 0x33, 0x00, 0x00, 0x12, 0x00,
  0x1c, 0x00, 0x18, 0x00, 0x14, 0x00, 0x10, 0x00, 0x0c, 0x00, 0x08, 0x00,
  0x00, 0x00, 0x04, 0x00, 0x12, 0x00, 0x00, 0x00, 0x18, 0x00, 0x00, 0x00,
  0xc0, 0x00, 0x00, 0x00, 0x7c, 0x42, 0x00, 0x00, 0xcc, 0x3f, 0x00, 0x00,
  0x90, 0x42, 0x00, 0x00, 0x03, 0x00, 0x00, 0x00, 0x04, 0x00, 0x00, 0x00,
  0x84, 0x00, 0x00, 0x00, 0x54, 0x00, 0x00, 0x00, 0x30, 0x00, 0x00, 0x00,
  0x04, 0x00, 0x00, 0x00, 0x94, 0xff, 0xff, 0xff, 0x06, 0x00, 0x00, 0x00,
  0x04, 0x00, 0x00, 0x00, 0x17, 0x00, 0x00, 0x00, 0x4f, 0x66, 0x66, 0x6c,
  0x69, 0x6e, 0x65, 0x4d, 0x65, 0x6d, 0x6f, 0x72, 0x79, 0x41, 0x6c, 0x6c,
  0x6f, 0x63, 0x61, 0x74, 0x69, 0x6f, 0x6e, 0x00, 0xbc, 0xff, 0xff, 0xff,
  0x05, 0x00, 0x00, 0x00, 0x04, 0x00, 0x00, 0x00, 0x0c, 0x00, 0x00, 0x00,
  0x76, 0x65, 0x6c, 0x61, 0x5f, 0x76, 0x65, 0x72, 0x73, 0x69, 0x6f, 0x6e,
  0x00, 0x00, 0x00, 0x00, 0xdc, 0xff, 0xff, 0xff, 0x04, 0x00, 0x00, 0x00,
  0x04, 0x00, 0x00, 0x00, 0x13, 0x00, 0x00, 0x00, 0x43, 0x4f, 0x4e, 0x56,
  0x45, 0x52, 0x53, 0x49, 0x4f, 0x4e, 0x5f, 0x4d, 0x45, 0x54, 0x41, 0x44,
  0x41, 0x54, 0x41, 0x00, 0x08, 0x00, 0x0c, 0x00, 0x08, 0x00, 0x04, 0x00,
  0x08, 0x00, 0x00, 0x00, 0x03, 0x00, 0x00, 0x00, 0x04, 0x00, 0x00, 0x00,
  0x13, 0x00, 0x00, 0x00, 0x6d, 0x69, 0x6e, 0x5f, 0x72, 0x75, 0x6e, 0x74,
  0x69, 0x6d, 0x65, 0x5f, 0x76, 0x65, 0x72, 0x73, 0x69, 0x6f, 0x6e, 0x00,
  0x07, 0x00, 0x00, 0x00, 0x0c, 0x3f, 0x00, 0x00, 0xc8, 0x39, 0x00, 0x00,
  0xf4, 0x00, 0x00, 0x00, 0xd0, 0x00, 0x00, 0x00, 0x5c, 0x00, 0x00, 0x00,
  0x38, 0x00, 0x00, 0x00, 0x04, 0x00, 0x00, 0x00, 0x56, 0xc6, 0xff, 0xff,
  0x04, 0x00, 0x00, 0x00, 0x24, 0x00, 0x00, 0x00, 0x00, 0x00, 0x00, 0x00,
  0x01, 0x00, 0x00, 0x00, 0x06, 0x00, 0x00, 0x00, 0x10, 0x00, 0x00, 0x00,
  0xff, 0xff, 0xff, 0xff, 0xff, 0xff, 0xff, 0xff, 0x00, 0x00, 0x00, 0x00,
  0x00, 0x00, 0x00, 0x00, 0x00, 0x00, 0x00, 0x00, 0x86, 0xc6, 0xff, 0xff,
  0x04, 0x00, 0x00, 0x00, 0x05, 0x00, 0x00, 0x00, 0x34, 0x2e, 0x33, 0x2e,
  0x30, 0x00, 0x00, 0x00, 0x00, 0x00, 0x00, 0x00, 0x00, 0x00, 0x00, 0x00,
  0x00, 0x00, 0x00, 0x00, 0xa6, 0xc6, 0xff, 0xff, 0x04, 0x00, 0x00, 0x00,
  0x60, 0x00, 0x00, 0x00, 0x0c, 0x00, 0x00, 0x00, 0x08, 0x00, 0x0e, 0x00,
  0x08, 0x00, 0x04, 0x00, 0x08, 0x00, 0x00, 0x00, 0x14, 0x00, 0x00, 0x00,
  0x30, 0x00, 0x00, 0x00, 0x00, 0x00, 0x0a, 0x00, 0x0c, 0x00, 0x08, 0x00,
  0x00, 0x00, 0x07, 0x00, 0x0a, 0x00, 0x00, 0x00, 0x00, 0x00, 0x00, 0x01,
  0x04, 0x00, 0x00, 0x00, 0x01, 0x00, 0x00, 0x00, 0xeb, 0x03, 0x00, 0x00,
  0x00, 0x00, 0x0a, 0x00, 0x10, 0x00, 0x0c, 0x00, 0x08, 0x00, 0x04, 0x00,
  0x0a, 0x00, 0x00, 0x00, 0x02, 0x00, 0x00, 0x00, 0x02, 0x00, 0x00, 0x00,
  0x04, 0x00, 0x00, 0x00, 0x06, 0x00, 0x00, 0x00, 0x32, 0x2e, 0x31, 0x31,
  0x2e, 0x30, 0x00, 0x00, 0x00, 0x00, 0x00, 0x00, 0x16, 0xc7, 0xff, 0xff,
  0x04, 0x00, 0x00, 0x00, 0x10, 0x00, 0x00, 0x00, 0x31, 0x2e, 0x31, 0x34,
  0x2e, 0x30, 0x00, 0x00, 0x00, 0x00, 0x00, 0x00, 0x00, 0x00, 0x00, 0x00,
  0x00, 0x00, 0x00, 0x00, 0x36, 0xc7, 0xff, 0xff, 0x04, 0x00, 0x00, 0x00,
  0xb0, 0x38, 0x00, 0x00, 0x00, 0x00, 0x00, 0x00, 0x00, 0x00, 0x00, 0x00,
  0x00, 0x00, 0x00, 0x00, 0x00, 0x00, 0x00, 0x00, 0x00, 0x00, 0x00, 0x00,
  0x00, 0x00, 0x00, 0x00, 0x00, 0x00, 0x00, 0x00, 0x00, 0x00, 0x00, 0x00,
  0x00, 0x00, 0x00, 0x00, 0x00, 0x00, 0x00, 0x00, 0x00, 0x00, 0x00, 0x00,
  0x00, 0x00, 0x00, 0x00, 0x00, 0x00, 0x00, 0x00, 0x00, 0x00, 0x00, 0x00,
  0x00, 0x00, 0x00, 0x00, 0x00, 0x00, 0x00, 0x00, 0x00, 0x00, 0x00, 0x00,
  0x00, 0x00, 0x00, 0x00, 0x00, 0x00, 0x00, 0x00, 0x00, 0x00, 0x00, 0x00,
  0x00, 0x00, 0x00, 0x00, 0x00, 0x00, 0x00, 0x00, 0x00, 0x00, 0x00, 0x00,
  0x00, 0x00, 0x00, 0x00, 0x00, 0x00, 0x00, 0x00, 0x00, 0x00, 0x00, 0x00,
  0x00, 0x00, 0x00, 0x00, 0x00, 0x00, 0x00, 0x00, 0x00, 0x00, 0x00, 0x00,
  0x00, 0x00, 0x00, 0x00, 0x00, 0x00, 0x00, 0x00, 0x00, 0x00, 0x00, 0x00,
  0x00, 0x00, 0x00, 0x00, 0x00, 0x00, 0x00, 0x00, 0x00, 0x00, 0x00, 0x00,
  0x00, 0x00, 0x00, 0x00, 0x00, 0x00, 0x00, 0x00, 0x00, 0x00, 0x00, 0x00,
  0x00, 0x00, 0x00, 0x00, 0x00, 0x00, 0x00, 0x00, 0x00, 0x00, 0x00, 0x00,
  0x00, 0x00, 0x00, 0x00, 0x00, 0x00, 0x00, 0x00, 0x00, 0x00, 0x00, 0x00,
  0x00, 0x00, 0x00, 0x00, 0x00, 0x00, 0x00, 0x00, 0x00, 0x00, 0x00, 0x00,
  0x00, 0x00, 0x00, 0x00, 0x00, 0x00, 0x00, 0x00, 0x00, 0x00, 0x00, 0x00,
  0x00, 0x00, 0x00, 0x00, 0x00, 0x00, 0x00, 0x00, 0x00, 0x00, 0x00, 0x00,
  0x00, 0x00, 0x00, 0x00, 0x00, 0x00, 0x00, 0x00, 0x00, 0x00, 0x00, 0x00,
  0x00, 0x00, 0x00, 0x00, 0x00, 0x00, 0x00, 0x00, 0x00, 0x00, 0x00, 0x00,
  0x00, 0x00, 0x00, 0x00, 0x00, 0x00, 0x00, 0x00, 0x00, 0x00, 0x00, 0x00,
  0x00, 0x00, 0x00, 0x00, 0x00, 0x00, 0x00, 0x00, 0x00, 0x00, 0x00, 0x00,
  0x00, 0x00, 0x00, 0x00, 0x00, 0x00, 0x00, 0x00, 0x00, 0x00, 0x00, 0x00,
  0x00, 0x00, 0x00, 0x00, 0x00, 0x00, 0x00, 0x00, 0x00, 0x00, 0x00, 0x00,
  0x00, 0x00, 0x00, 0x00, 0x00, 0x00, 0x00, 0x00, 0x00, 0x00, 0x00, 0x00,
  0x00, 0x00, 0x00, 0x00, 0x00, 0x00, 0x00, 0x00, 0x00, 0x00, 0x00, 0x00,
  0x00, 0x00, 0x00, 0x00, 0x00, 0x00, 0x00, 0x00, 0x00, 0x00, 0x00, 0x00,
  0x00, 0x00, 0x00, 0x00, 0x00, 0x00, 0x00, 0x00, 0x00, 0x00, 0x00, 0x00,
  0x00, 0x00, 0x00, 0x00, 0x00, 0x00, 0x00, 0x00, 0x00, 0x00, 0x00, 0x00,
  0x00, 0x00, 0x00, 0x00, 0x00, 0x00, 0x00, 0x00, 0x00, 0x00, 0x00, 0x00,
  0x00, 0x00, 0x00, 0x00, 0x00, 0x00, 0x00, 0x00, 0x00, 0x00, 0x00, 0x00,
  0x00, 0x00, 0x00, 0x00, 0x00, 0x00, 0x00, 0x00, 0x00, 0x00, 0x00, 0x00,
  0x00, 0x00, 0x00, 0x00, 0x00, 0x00, 0x00, 0x00, 0x00, 0x00, 0x00, 0x00,
  0x00, 0x00, 0x00, 0x00, 0x00, 0x00, 0x00, 0x00, 0x00, 0x00, 0x00, 0x00,
  0x00, 0x00, 0x00, 0x00, 0x00, 0x00, 0x00, 0x00, 0x00, 0x00, 0x00, 0x00,
  0x00, 0x00, 0x00, 0x00, 0x00, 0x00, 0x00, 0x00, 0x00, 0x00, 0x00, 0x00,
  0x00, 0x00, 0x00, 0x00, 0x00, 0x00, 0x00, 0x00, 0x00, 0x00, 0x00, 0x00,
  0x00, 0x00, 0x00, 0x00, 0x00, 0x00, 0x00, 0x00, 0x00, 0x00, 0x00, 0x00,
  0x00, 0x00, 0x00, 0x00, 0x00, 0x00, 0x00, 0x00, 0x00, 0x00, 0x00, 0x00,
  0x00, 0x00, 0x00, 0x00, 0x00, 0x00, 0x00, 0x00, 0x00, 0x00, 0x00, 0x00,
  0x00, 0x00, 0x00, 0x00, 0x00, 0x00, 0x00, 0x00, 0x00, 0x00, 0x00, 0x00,
  0x00, 0x00, 0x00, 0x00, 0x00, 0x00, 0x00, 0x00, 0x00, 0x00, 0x00, 0x00,
  0x00, 0x00, 0x00, 0x00, 0x00, 0x00, 0x00, 0x00, 0x00, 0x00, 0x00, 0x00,
  0x00, 0x00, 0x00, 0x00, 0x00, 0x00, 0x00, 0x00, 0x00, 0x00, 0x00, 0x00,
  0x00, 0x00, 0x00, 0x00, 0x00, 0x00, 0x00, 0x00, 0x00, 0x00, 0x00, 0x00,
  0x00, 0x00, 0x00, 0x00, 0x00, 0x00, 0x00, 0x00, 0x00, 0x00, 0x00, 0x00,
  0x00, 0x00, 0x00, 0x00, 0x00, 0x00, 0x00, 0x00, 0x00, 0x00, 0x00, 0x00,
  0x00, 0x00, 0x00, 0x00, 0x00, 0x00, 0x00, 0x00, 0x00, 0x00, 0x00, 0x00,
  0x00, 0x00, 0x00, 0x00, 0x00, 0x00, 0x00, 0x00, 0x00, 0x00, 0x00, 0x00,
  0x00, 0x00, 0x00, 0x00, 0x00, 0x00, 0x00, 0x00, 0x00, 0x00, 0x00, 0x00,
  0x00, 0x00, 0x00, 0x00, 0x00, 0x00, 0x00, 0x00, 0x00, 0x00, 0x00, 0x00,
  0x00, 0x00, 0x00, 0x00, 0x00, 0x00, 0x00, 0x00, 0x00, 0x00, 0x00, 0x00,
  0x00, 0x00, 0x00, 0x00, 0x00, 0x00, 0x00, 0x00, 0x00, 0x00, 0x00, 0x00,
  0x00, 0x00, 0x00, 0x00, 0x00, 0x00, 0x00, 0x00, 0x00, 0x00, 0x00, 0x00,
  0x00, 0x00, 0x00, 0x00, 0x00, 0x00, 0x00, 0x00, 0x00, 0x00, 0x00, 0x00,
  0x00, 0x00, 0x00, 0x00, 0x00, 0x00, 0x00, 0x00, 0x00, 0x00, 0x00, 0x00,
  0x00, 0x00, 0x00, 0x00, 0x00, 0x00, 0x00, 0x00, 0x00, 0x00, 0x00, 0x00,
  0x00, 0x00, 0x00, 0x00, 0x00, 0x00, 0x00, 0x00, 0x00, 0x00, 0x00, 0x00,
  0x00, 0x00, 0x00, 0x00, 0x00, 0x00, 0x00, 0x00, 0x00, 0x00, 0x00, 0x00,
  0x00, 0x00, 0x00, 0x00, 0x00, 0x00, 0x00, 0x00, 0x00, 0x00, 0x00, 0x00,
  0x00, 0x00, 0x00, 0x00, 0x00, 0x00, 0x00, 0x00, 0x00, 0x00, 0x00, 0x00,
  0x00, 0x00, 0x00, 0x00, 0x00, 0x00, 0x00, 0x00, 0x00, 0x00, 0x00, 0x00,
  0x00, 0x00, 0x00, 0x00, 0x00, 0x00, 0x00, 0x00, 0x00, 0x00, 0x00, 0x00,
  0x00, 0x00, 0x00, 0x00, 0x00, 0x00, 0x00, 0x00, 0x00, 0x00, 0x00, 0x00,
  0x00, 0x00, 0x00, 0x00, 0x00, 0x00, 0x00, 0x00, 0x00, 0x00, 0x00, 0x00,
  0x00, 0x00, 0x00, 0x00, 0x00, 0x00, 0x00, 0x00, 0x00, 0x00, 0x00, 0x00,
  0x00, 0x00, 0x00, 0x00, 0x00, 0x00, 0x00, 0x00, 0x00, 0x00, 0x00, 0x00,
  0x00, 0x00, 0x00, 0x00, 0x00, 0x00, 0x00, 0x00, 0x00, 0x00, 0x00, 0x00,
  0x00, 0x00, 0x00, 0x00, 0x00, 0x00, 0x00, 0x00, 0x00, 0x00, 0x00, 0x00,
  0x00, 0x00, 0x00, 0x00, 0x00, 0x00, 0x00, 0x00, 0x00, 0x00, 0x00, 0x00,
  0x00, 0x00, 0x00, 0x00, 0x00, 0x00, 0x00, 0x00, 0x00, 0x00, 0x00, 0x00,
  0x00, 0x00, 0x00, 0x00, 0x00, 0x00, 0x00, 0x00, 0x00, 0x00, 0x00, 0x00,
  0x00, 0x00, 0x00, 0x00, 0x00, 0x00, 0x00, 0x00, 0x00, 0x00, 0x00, 0x00,
  0x00, 0x00, 0x00, 0x00, 0x00, 0x00, 0x00, 0x00, 0x00, 0x00, 0x00, 0x00,
  0x00, 0x00, 0x00, 0x00, 0x00, 0x00, 0x00, 0x00, 0x00, 0x00, 0x00, 0x00,
  0x00, 0x00, 0x00, 0x00, 0x00, 0x00, 0x00, 0x00, 0x00, 0x00, 0x00, 0x00,
  0x00, 0x00, 0x00, 0x00, 0x00, 0x00, 0x00, 0x00, 0x00, 0x00, 0x00, 0x00,
  0x00, 0x00, 0x00, 0x00, 0x00, 0x00, 0x00, 0x00, 0x00, 0x00, 0x00, 0x00,
  0x00, 0x00, 0x00, 0x00, 0x00, 0x00, 0x00, 0x00, 0x00, 0x00, 0x00, 0x00,
  0x00, 0x00, 0x00, 0x00, 0x00, 0x00, 0x00, 0x00, 0x00, 0x00, 0x00, 0x00,
  0x00, 0x00, 0x00, 0x00, 0x00, 0x00, 0x00, 0x00, 0x00, 0x00, 0x00, 0x00,
  0x00, 0x00, 0x00, 0x00, 0x00, 0x00, 0x00, 0x00, 0x00, 0x00, 0x00, 0x00,
  0x00, 0x00, 0x00, 0x00, 0x00, 0x00, 0x00, 0x00, 0x00, 0x00, 0x00, 0x00,
  0x00, 0x00, 0x00, 0x00, 0x00, 0x00, 0x00, 0x00, 0x00, 0x00, 0x00, 0x00,
  0x00, 0x00, 0x00, 0x00, 0x00, 0x00, 0x00, 0x00, 0x00, 0x00, 0x00, 0x00,
  0x00, 0x00, 0x00, 0x00, 0x00, 0x00, 0x00, 0x00, 0x00, 0x00, 0x00, 0x00,
  0x00, 0x00, 0x00, 0x00, 0x00, 0x00, 0x00, 0x00, 0x00, 0x00, 0x00, 0x00,
  0x00, 0x00, 0x00, 0x00, 0x00, 0x00, 0x00, 0x00, 0x00, 0x00, 0x00, 0x00,
  0x00, 0x00, 0x00, 0x00, 0x00, 0x00, 0x00, 0x00, 0x00, 0x00, 0x00, 0x00,
  0x00, 0x00, 0x00, 0x00, 0x00, 0x00, 0x00, 0x00, 0x00, 0x00, 0x00, 0x00,
  0x00, 0x00, 0x00, 0x00, 0x00, 0x00, 0x00, 0x00, 0x00, 0x00, 0x00, 0x00,
  0x00, 0x00, 0x00, 0x00, 0x00, 0x00, 0x00, 0x00, 0x00, 0x00, 0x00, 0x00,
  0x00, 0x00, 0x00, 0x00, 0x00, 0x00, 0x00, 0x00, 0x00, 0x00, 0x00, 0x00,
  0x00, 0x00, 0x00, 0x00, 0x00, 0x00, 0x00, 0x00, 0x80, 0x80, 0x80, 0x80,
  0x80, 0x80, 0x80, 0x80, 0x80, 0x80, 0x80, 0x80, 0x80, 0x80, 0x80, 0x80,
  0x80, 0x80, 0x80, 0x80, 0x80, 0x80, 0x80, 0x80, 0x80, 0x80, 0x80, 0x80,
  0x80, 0x80, 0x80, 0x80, 0x80, 0x80, 0x80, 0x80, 0x80, 0x80, 0x80, 0x80,
  0x80, 0x80, 0x80, 0x80, 0x80, 0x80, 0x80, 0x80, 0x80, 0x80, 0x80, 0x80,
  0x80, 0x80, 0x80, 0x80, 0x80, 0x80, 0x80, 0x80, 0x80, 0x80, 0x80, 0x80,
  0x80, 0x80, 0x80, 0x80, 0x80, 0x80, 0x80, 0x80, 0x80, 0x80, 0x80, 0x80,
  0x80, 0x80, 0x80, 0x80, 0x80, 0x80, 0x80, 0x80, 0x80, 0x80, 0x80, 0x80,
  0x80, 0x80, 0x80, 0x80, 0x80, 0x80, 0x80, 0x80, 0x80, 0x80, 0x80, 0x80,
  0x80, 0x80, 0x80, 0x80, 0x80, 0x80, 0x80, 0x80, 0x80, 0x80, 0x80, 0x80,
  0x80, 0x80, 0x80, 0x80, 0x80, 0x80, 0x80, 0x80, 0x80, 0x80, 0x80, 0x80,
  0x80, 0x80, 0x80, 0x80, 0x80, 0x80, 0x80, 0x80, 0x80, 0x80, 0x80, 0x80,
  0x80, 0x80, 0x80, 0x80, 0x80, 0x80, 0x80, 0x80, 0x80, 0x80, 0x80, 0x81,
  0x81, 0x81, 0x81, 0x81, 0x81, 0x82, 0x82, 0x82, 0x83, 0x83, 0x84, 0x84,
  0x85, 0x86, 0x87, 0x88, 0x89, 0x8b, 0x8d, 0x8f, 0x91, 0x94, 0x97, 0x9b,
  0x9f, 0xa4, 0xaa, 0xb0, 0xb6, 0xbe, 0xc6, 0xce, 0xd7, 0xe1, 0xeb, 0xf6,
  0x00, 0x0a, 0x15, 0x1f, 0x29, 0x32, 0x3a, 0x42, 0x4a, 0x50, 0x56, 0x5c,
  0x61, 0x65, 0x69, 0x6c, 0x6f, 0x71, 0x73, 0x75, 0x77, 0x78, 0x79, 0x7a,
  0x7b, 0x7c, 0x7c, 0x7d, 0x7d, 0x7e, 0x7e, 0x7e, 0x7f, 0x7f, 0x7f, 0x7f,
  0x7f, 0x7f, 0x7f, 0x7f, 0x7f, 0x7f, 0x7f, 0x7f, 0x7f, 0x7f, 0x7f, 0x7f,
  0x7f, 0x7f, 0x7f, 0x7f, 0x7f, 0x7f, 0x7f, 0x7f, 0x7f, 0x7f, 0x7f, 0x7f,
  0x7f, 0x7f, 0x7f, 0x7f, 0x7f, 0x7f, 0x7f, 0x7f, 0x7f, 0x7f, 0x7f, 0x7f,
  0xa2, 0xfc, 0xff, 0xff, 0xff, 0x56, 0xc1, 0xd8, 0x67, 0x25, 0x56, 0xfb,
  0xff, 0xff, 0xff, 0x6b, 0xd4, 0xc5, 0x52, 0x25, 0x40, 0xef, 0xff, 0xff,
  0xff, 0xf6, 0x4b, 0xe5, 0x79, 0x26, 0xe2, 0xee, 0xff, 0xff, 0xff, 0x07,
  0x7f, 0xe1, 0x60, 0x26, 0x9d, 0xf7, 0xff, 0xff, 0xff, 0x78, 0x69, 0x8e,
  0x5b, 0x25, 0x11, 0xfd, 0xff, 0xff, 0xff, 0x9e, 0xde, 0x35, 0x4c, 0x25,
  0xc1, 0xf7, 0xff, 0xff, 0xff, 0xa0, 0xc3, 0xa3, 0x51, 0x25, 0xe1, 0xfc,
  0xff, 0xff, 0xff, 0x64, 0x4f, 0x5f, 0x55, 0x25, 0xe0, 0xf4, 0xff, 0xff,
  0xff, 0xc4, 0xb6, 0x55, 0x46, 0x25, 0x8c, 0xff, 0xff, 0xff, 0xff, 0xe7,
  0xa9, 0x21, 0x45, 0x25, 0x41, 0x08, 0x00, 0x00, 0x00, 0xd1, 0x6f, 0xf7,
  0x71, 0x27, 0xd6, 0xfe, 0xff, 0xff, 0xff, 0x69, 0xa1, 0x3c, 0x73, 0x26,
  0x44, 0xff, 0xff, 0xff, 0xff, 0x60, 0xea, 0xb6, 0x63, 0x25, 0x8b, 0xfa,
  0xff, 0xff, 0xff, 0xf7, 0x2f, 0xea, 0x63, 0x26, 0xd3, 0xfe, 0xff, 0xff,
  0xff, 0xec, 0x22, 0x74, 0x6c, 0x26, 0x86, 0xfd, 0xff, 0xff, 0xff, 0xa6,
  0x5f, 0xc8, 0x4f, 0x25, 0x7b, 0x01, 0xcc, 0xf2, 0xed, 0xff, 0x7f, 0x6f,
  0x4f, 0xaf, 0x2d, 0xfc, 0xab, 0xdb, 0xaa, 0x4a, 0x1a, 0x7a, 0x59, 0xc8,
  0x47, 0xd7, 0x26, 0x56, 0xf5, 0xc4, 0x04, 0xe4, 0x43, 0x23, 0x13, 0x53,
  0xc2, 0x31, 0xe1, 0xd0, 0x00, 0xa5, 0x00, 0x9f, 0x7f, 0x00, 0x55, 0xe2,
  0x84, 0x85, 0xf1, 0xff, 0xff, 0xf5, 0x04, 0x60, 0x41, 0x56, 0x27, 0xfd,
  0xff, 0xff, 0x8f, 0xfa, 0x7f, 0x27, 0xcf, 0x03, 0xcd, 0xff, 0xff, 0xff,
  0x01, 0x08, 0x48, 0x98, 0x4f, 0x18, 0x00, 0xfd, 0xff, 0xff, 0x37, 0x06,
  0x80, 0x13, 0x84, 0x0d, 0xc0, 0xff, 0xff, 0xff, 0xff, 0x23, 0x00, 0xff,
  0xff, 0xff, 0x00, 0xff, 0xe0, 0xff, 0xff, 0xff, 0xff, 0x32, 0xa4, 0x8a,
  0x54, 0x25, 0x48, 0x00, 0x00, 0x00, 0x00, 0xa8, 0xf7, 0x09, 0x4a, 0x25,
  0x69, 0xf2, 0xff, 0xff, 0xff, 0x90, 0x7e, 0x95, 0x7c, 0x26, 0x37, 0xff,
  0xff, 0xff, 0xff, 0xf1, 0x39, 0x8a, 0x51, 0x25, 0x43, 0x0c, 0x00, 0x00,
  0x00, 0xf9, 0xb1, 0x53, 0x56, 0x27, 0x95, 0xee, 0xff, 0xff, 0xff, 0x4c,
  0x20, 0x48, 0x6c, 0x26, 0xc4, 0xfa, 0xff, 0xff, 0xff, 0xa1, 0x6c, 0xd2,
  0x58, 0x25, 0x8a, 0xfe, 0xff, 0xff, 0xff, 0x29, 0xe4, 0x24, 0x4f, 0x25,
  0x7a, 0xfd, 0xff, 0xff, 0xff, 0x24, 0x9d, 0x0d, 0x53, 0x25, 0x30, 0xfe,
  0xff, 0xff, 0xff, 0x81, 0xfb, 0x95, 0x46, 0x25, 0x8b, 0x00, 0x00, 0x00,
  0x00, 0xd7, 0xe3, 0x47, 0x66, 0x26, 0x56, 0xfa, 0xff, 0xff, 0xff, 0x87,
  0xf4, 0xfc, 0x5f, 0x25, 0x21, 0x02, 0x00, 0x00, 0x00, 0x62, 0x86, 0x49,
  0x65, 0x28, 0xcb, 0xf9, 0xff, 0xff, 0xff, 0xdf, 0xd0, 0x2b, 0x61, 0x25,
  0x71, 0xfd, 0xff, 0xff, 0xff, 0xd8, 0x9d, 0x9a, 0x56, 0x25, 0xdf, 0xfc,
  0xff, 0xff, 0xff, 0xc4, 0x54, 0x41, 0x5f, 0x25, 0x7b, 0x01, 0x4c, 0xb2,
  0xed, 0xff, 0xbf, 0x4e, 0xaa, 0xc7, 0xd4, 0x51, 0x40, 0xff, 0x4e, 0x3e,
  0x1e, 0x5e, 0xad, 0x3b, 0x9a, 0x18, 0xd8, 0xb7, 0x55, 0x75, 0x23, 0xb3,
  0x71, 0xa1, 0x70, 0x40, 0x20, 0x00, 0x00, 0xb5, 0x19, 0x80, 0x29, 0xce,
  0x20, 0x80, 0x06, 0xff, 0xff, 0x7f, 0xd5, 0x00, 0x5c, 0x00, 0x2e, 0x61,
  0xfc, 0xff, 0xff, 0xaf, 0xe8, 0xff, 0x0d, 0xc7, 0x82, 0xe5, 0xff, 0xff,
  0x1f, 0xa0, 0x5e, 0xf1, 0x04, 0x31, 0x00, 0xf0, 0xff, 0xff, 0x0f, 0x10,
  0xc2, 0x17, 0xd4, 0x38, 0xff, 0xff, 0xff, 0xff, 0xff, 0xff, 0xff, 0x00,
  0xff, 0xff, 0xff, 0xff, 0xff, 0xff, 0xff, 0xff, 0xed, 0x00, 0x00, 0x00,
  0x00, 0xd3, 0x03, 0xbb, 0x6f, 0x24, 0xf2, 0xfd, 0xff, 0xff, 0xff, 0x9d,
  0x10, 0x34, 0x46, 0x24, 0xe1, 0xff, 0xff, 0xff, 0xff, 0x7e, 0xbf, 0x41,
  0x4c, 0x24, 0x95, 0x00, 0x00, 0x00, 0x00, 0xb1, 0xcc, 0xec, 0x60, 0x24,
  0x41, 0x01, 0x00, 0x00, 0x00, 0x80, 0xa8, 0x09, 0x46, 0x23, 0x98, 0xff,
  0xff, 0xff, 0xff, 0x51, 0xae, 0x68, 0x69, 0x24, 0x71, 0xfe, 0xff, 0xff,
  0xff, 0x39, 0x3e, 0x15, 0x4b, 0x26, 0x7d, 0xff, 0xff, 0xff, 0xff, 0xbf,
  0x36, 0xb9, 0x56, 0x24, 0xc4, 0x01, 0x00, 0x00, 0x00, 0x5d, 0xa4, 0xc2,
  0x62, 0x25, 0xfc, 0xff, 0xff, 0xff, 0xff, 0x57, 0xaf, 0x8e, 0x4a, 0x24,
  0x30, 0xfe, 0xff, 0xff, 0xff, 0x08, 0x19, 0xbc, 0x4d, 0x24, 0x25, 0x00,
  0x00, 0x00, 0x00, 0x64, 0x7e, 0x23, 0x7e, 0x24, 0xb3, 0x00, 0x00, 0x00,
  0x00, 0x8e, 0xab, 0x38, 0x74, 0x24, 0xbc, 0xff, 0xff, 0xff, 0xff, 0xf5,
  0x17, 0x8f, 0x75, 0x26, 0x5a, 0x00, 0x00, 0x00, 0x00, 0x0f, 0xf2, 0x0b,
  0x4f, 0x24, 0x49, 0x00, 0x00, 0x00, 0x00, 0xcb, 0x5a, 0x00, 0x71, 0x24,
  0xfe, 0x2f, 0x50, 0xf0, 0x2d, 0x00, 0x40, 0x30, 0x60, 0x50, 0x70, 0xa0,
  0x80, 0xc0, 0x90, 0xb0, 0xf0, 0x90, 0x11, 0xd1, 0x00, 0xe1, 0x30, 0xf1,
  0x5f, 0xd1, 0x71, 0x91, 0xb2, 0x71, 0x62, 0x21, 0xd1, 0xb3, 0x52, 0xb2,
  0xb3, 0xbf, 0xfc, 0xdf, 0xc3, 0xdd, 0x2e, 0xcf, 0xa7, 0x87, 0xd7, 0xc6,
  0x60, 0xfe, 0x7b, 0xfe, 0xf0, 0x22, 0x36, 0x11, 0x0f, 0xfe, 0x9f, 0xad,
  0xfd, 0xfb, 0x7f, 0xb6, 0x16, 0x7b, 0xc8, 0xb9, 0x00, 0xdf, 0x16, 0x28,
  0x11, 0xe4, 0x74, 0xe2, 0x93, 0x0f, 0x11, 0x44, 0x6a, 0xd3, 0xf7, 0xfb,
  0x33, 0x48, 0x71, 0x06, 0xfe, 0xbf, 0x37, 0xfa, 0xd1, 0xdf, 0xbf, 0x81,
  0xb2, 0x9e, 0x7c, 0x12, 0xfa, 0x7d, 0xc2, 0xb2, 0x3a, 0x96, 0x6b, 0x78,
  0x7d, 0x1e, 0x2a, 0xda, 0x98, 0x81, 0xff, 0xfb, 0xce, 0x0a, 0x37, 0x4c,
  0x03, 0xc0, 0x3c, 0x0c, 0x12, 0x73, 0x45, 0xa5, 0xd6, 0x10, 0x05, 0x0d,
  0x05, 0x12, 0x04, 0x9c, 0x83, 0x90, 0xe4, 0x8f, 0xff, 0x0b, 0xf2, 0x07,
  0xde, 0xc5, 0x05, 0x8b, 0xef, 0x5f, 0xd7, 0x00, 0x1b, 0x01, 0x0e, 0x5b,
  0x8f, 0xf7, 0xbf, 0x0f, 0xa5, 0xca, 0x03, 0x5c, 0xce, 0x0c, 0x94, 0x4e,
  0x07, 0x80, 0x7d, 0x12, 0xf9, 0x04, 0xda, 0xe0, 0xf8, 0x34, 0x26, 0x07,
  0x20, 0xa2, 0xf6, 0xf6, 0xff, 0x67, 0x28, 0x87, 0xe8, 0xa8, 0xbe, 0x69,
  0x8a, 0xfe, 0xd7, 0x7f, 0x35, 0x63, 0x84, 0x53, 0xce, 0x7f, 0xff, 0x36,
  0xde, 0x87, 0xfc, 0xcb, 0x21, 0x02, 0x69, 0xf2, 0x41, 0x03, 0x0e, 0x73,
  0x68, 0x97, 0x87, 0xca, 0x83, 0x01, 0x00, 0xb0, 0x85, 0xbc, 0x0a, 0x45,
  0xf8, 0x70, 0x31, 0x05, 0x08, 0x11, 0x63, 0x42, 0x9f, 0xf7, 0x3f, 0x24,
  0xa0, 0xdb, 0x48, 0xfe, 0xe1, 0x3f, 0x3b, 0xf9, 0xef, 0x5f, 0x1a, 0x32,
  0xf7, 0xdf, 0x2e, 0x2a, 0xca, 0xbf, 0x7e, 0x61, 0x37, 0xe9, 0xfd, 0xff,
  0xef, 0x58, 0xdf, 0x65, 0xc8, 0x0b, 0x86, 0xff, 0x1b, 0x07, 0x10, 0xa0,
  0xaa, 0xe3, 0xf9, 0x73, 0xeb, 0xdc, 0xf2, 0xc1, 0x09, 0xa9, 0x00, 0xf7,
  0xdf, 0x2f, 0xa6, 0xa6, 0x26, 0x00, 0x9f, 0xfe, 0xbc, 0xe3, 0xe5, 0x7d,
  0xdf, 0xfd, 0xa5, 0x30, 0x4e, 0x73, 0x85, 0x10, 0x0e, 0xca, 0xb8, 0x01,
  0xd0, 0xbb, 0xdd, 0xe7, 0x9f, 0x58, 0x37, 0x80, 0x70, 0x5e, 0x2e, 0xbf,
  0xd7, 0x4e, 0xe0, 0x87, 0x3d, 0x58, 0x12, 0xc8, 0x01, 0xa0, 0xc2, 0x77,
  0x47, 0x16, 0x3a, 0xcd, 0x5d, 0x84, 0x30, 0x45, 0xc5, 0x14, 0xff, 0x2d,
  0x8a, 0xb7, 0x0e, 0x38, 0x35, 0x86, 0x63, 0xcd, 0x87, 0x0c, 0x4d, 0x16,
  0xf1, 0x75, 0xc4, 0x0b, 0xa1, 0x80, 0x5e, 0x48, 0xc8, 0x7a, 0x04, 0x68,
  0xfe, 0xdb, 0xff, 0x7f, 0x6f, 0x80, 0xe8, 0xb4, 0x2a, 0x11, 0x30, 0x41,
  0x0c, 0x78, 0x34, 0x36, 0xfd, 0x43, 0x80, 0xb6, 0xdf, 0xfd, 0x01, 0x04,
  0x00, 0x9f, 0xfa, 0x52, 0xf3, 0xf1, 0x2a, 0x86, 0xca, 0x07, 0x0f, 0x0b,
  0x99, 0xc4, 0x70, 0x6e, 0xd7, 0x9c, 0x1e, 0x00, 0xe4, 0x8f, 0xbf, 0x84,
  0x54, 0x78, 0x1d, 0xc1, 0x49, 0x9f, 0x1f, 0x00, 0x4c, 0x0a, 0x91, 0x94,
  0x02, 0x20, 0xa8, 0x9b, 0x88, 0x87, 0x94, 0x80, 0x70, 0xef, 0xd3, 0x51,
  0x13, 0x21, 0x25, 0x54, 0x06, 0x76, 0xf2, 0x15, 0xc1, 0xb1, 0xfd, 0xab,
  0x9f, 0x20, 0x40, 0x91, 0xd3, 0xdf, 0xfb, 0x63, 0x09, 0xea, 0x81, 0x7f,
  0xfd, 0xfd, 0xc3, 0xff, 0xd1, 0x0d, 0x52, 0xf1, 0x63, 0xff, 0x8b, 0x8a,
  0xc0, 0xfe, 0x5f, 0x00, 0xde, 0xf7, 0xbf, 0x89, 0x33, 0x19, 0xf1, 0xe3,
  0xcf, 0x2a, 0xfa, 0x81, 0x0f, 0x3b, 0x42, 0xea, 0xa8, 0x4f, 0x4b, 0x51,
  0x31, 0xf9, 0xef, 0xff, 0x98, 0x31, 0xa8, 0x18, 0x1a, 0xee, 0x7f, 0xe8,
  0xd9, 0xf1, 0xe5, 0x59, 0x45, 0x24, 0x6e, 0x9e, 0x67, 0xc7, 0x12, 0xf2,
  0x7f, 0xfd, 0x83, 0xb0, 0x46, 0x18, 0x01, 0xc0, 0x19, 0xf0, 0x01, 0x8f,
  0x2d, 0x2d, 0x93, 0xb0, 0x66, 0x00, 0xf8, 0x07, 0x19, 0xb9, 0x90, 0x7f,
  0x78, 0x1f, 0x11, 0x18, 0x34, 0x50, 0x4b, 0x7f, 0xcc, 0x9f, 0x31, 0x56,
  0x8d, 0xd9, 0x70, 0x66, 0xd8, 0xb7, 0xd3, 0xc7, 0xc7, 0x96, 0xda, 0xef,
  0x75, 0xbe, 0xe7, 0x0f, 0x92, 0x5b, 0x4b, 0xef, 0xf9, 0x1e, 0x89, 0xfa,
  0x4d, 0x38, 0x71, 0x48, 0x04, 0x0f, 0x2f, 0x14, 0x59, 0xbc, 0x51, 0x00,
  0xb7, 0x96, 0x81, 0xee, 0x91, 0xf8, 0xc5, 0xe9, 0x01, 0x8d, 0x29, 0x95,
  0xfb, 0x1f, 0xdb, 0xd2, 0x22, 0xf0, 0x92, 0x99, 0x27, 0xcf, 0x31, 0xae,
  0x82, 0x23, 0xbb, 0x05, 0x3b, 0xe4, 0x5a, 0xf1, 0xfe, 0xfe, 0x83, 0xb3,
  0xc0, 0x03, 0x08, 0x11, 0xcd, 0x02, 0x10, 0x43, 0x42, 0xa4, 0x21, 0x40,
  0x12, 0x00, 0xbe, 0xbd, 0x91, 0x9a, 0xa9, 0x08, 0x88, 0xfa, 0x66, 0x0b,
  0x06, 0x1b, 0x75, 0x81, 0xf1, 0x07, 0x3f, 0xe5, 0xcc, 0x08, 0xfa, 0xc7,
  0xbf, 0x07, 0xe0, 0x20, 0xbf, 0xd1, 0xf5, 0x74, 0x1a, 0x70, 0x14, 0x9f,
  0x08, 0x48, 0xc2, 0xec, 0x83, 0x05, 0x85, 0x22, 0x01, 0x0f, 0x8f, 0xff,
  0x2b, 0x48, 0x6f, 0xe9, 0x3e, 0xf8, 0x43, 0x7c, 0x24, 0x38, 0xff, 0xbf,
  0xcf, 0x50, 0x6a, 0x60, 0x78, 0xe4, 0x84, 0x0e, 0x3d, 0xf9, 0x20, 0x90,
  0xba, 0xf4, 0x1c, 0xee, 0x41, 0x44, 0xe9, 0x1a, 0x87, 0x61, 0x12, 0xa4,
  0x45, 0x96, 0xe7, 0x6c, 0xd8, 0x64, 0x49, 0x87, 0x86, 0x3e, 0xf0, 0x34,
  0x20, 0x18, 0x46, 0x1d, 0x60, 0xbe, 0x40, 0xa0, 0xf0, 0xde, 0x6f, 0xe7,
  0x54, 0xc0, 0x0c, 0x0d, 0x49, 0xa8, 0xc7, 0x9a, 0x45, 0xf1, 0x05, 0x1e,
  0x9b, 0x8f, 0x69, 0x4a, 0xeb, 0x07, 0xfe, 0x8e, 0x98, 0x2f, 0x09, 0x72,
  0x78, 0xf0, 0x4d, 0xc3, 0x10, 0x13, 0x5c, 0x24, 0x12, 0x0f, 0x0a, 0x79,
  0x9f, 0x23, 0x6a, 0x83, 0x4a, 0x62, 0x00, 0x70, 0xdb, 0x8f, 0x79, 0x0b,
  0xfa, 0x8c, 0xf4, 0x0e, 0x78, 0x4c, 0xc2, 0xa4, 0x10, 0xe1, 0x81, 0xb0,
  0x82, 0xaa, 0x41, 0xc0, 0x2e, 0xcf, 0x64, 0x61, 0xdc, 0xca, 0x4f, 0x7e,
  0x96, 0x1f, 0x92, 0x9b, 0x77, 0x70, 0x02, 0x42, 0xe6, 0x75, 0xac, 0x43,
  0x1c, 0x28, 0x51, 0x88, 0x58, 0x99, 0x39, 0x30, 0x24, 0x3f, 0x13, 0x61,
  0x1f, 0x02, 0x86, 0x0a, 0xee, 0x11, 0xbf, 0x04, 0x8a, 0x7f, 0xff, 0x05,
  0x36, 0x21, 0x1b, 0xf9, 0x13, 0xfd, 0xce, 0xbb, 0xc4, 0xe8, 0xb8, 0x7d,
  0xae, 0x7e, 0x00, 0x07, 0xaf, 0xac, 0x6e, 0x88, 0xde, 0x65, 0xc0, 0x0f,
  0x86, 0x39, 0x2b, 0x7e, 0xff, 0x9f, 0x53, 0x9a, 0xd1, 0x94, 0x00, 0x7f,
  0xf7, 0xfb, 0xc5, 0xe8, 0x3f, 0xfd, 0x25, 0xe7, 0x43, 0x5b, 0x6d, 0x8f,
  0x22, 0xaf, 0x1f, 0x33, 0x0d, 0x7c, 0x1d, 0x07, 0xbf, 0x30, 0x3c, 0x16,
  0xf3, 0xfb, 0x3f, 0x00, 0x4a, 0xb2, 0xae, 0x07, 0x7f, 0x82, 0x7a, 0x80,
  0xfb, 0x5e, 0xf9, 0x11, 0x00, 0x21, 0x12, 0x54, 0x54, 0x00, 0xf8, 0x8f,
  0x30, 0x6c, 0x31, 0xb7, 0xe0, 0xfc, 0x3f, 0xb7, 0x07, 0x04, 0x25, 0xa2,
  0xfb, 0x8f, 0xd9, 0x50, 0x75, 0xe0, 0xff, 0x5f, 0x99, 0x2e, 0x1b, 0xc0,
  0x76, 0x24, 0xe3, 0xdf, 0xfc, 0x4f, 0xc2, 0x00, 0xa8, 0x88, 0xfa, 0xef,
  0x7f, 0x7e, 0xf7, 0x31, 0x8c, 0x4e, 0xf8, 0x81, 0xaf, 0x30, 0x53, 0xda,
  0x4a, 0x42, 0x5e, 0xbc, 0x3c, 0x0a, 0x06, 0x70, 0xfe, 0x7d, 0x19, 0x70,
  0x4b, 0x33, 0x3f, 0xff, 0xad, 0xdc, 0x56, 0x76, 0x7f, 0xcf, 0xf5, 0xf4,
  0x79, 0x6f, 0xd8, 0x64, 0xae, 0x07, 0x23, 0x0e, 0x24, 0x3e, 0x50, 0xf2,
  0xd7, 0xef, 0x83, 0x48, 0x24, 0x61, 0x18, 0xfc, 0xff, 0xfd, 0x9f, 0x5d,
  0x3e, 0xf2, 0xfb, 0x67, 0x4c, 0xc7, 0x87, 0x2b, 0x90, 0x1f, 0xdb, 0x4f,
  0x84, 0xb8, 0xfa, 0x01, 0xce, 0xff, 0x8f, 0x12, 0x78, 0xf0, 0xef, 0x5b,
  0x44, 0x64, 0x2e, 0xa6, 0x79, 0x40, 0xd4, 0x3f, 0xfe, 0x22, 0xea, 0x85,
  0x2d, 0xad, 0xfa, 0xd0, 0x0b, 0x59, 0x10, 0x7f, 0xf4, 0xc3, 0x11, 0x12,
  0xbf, 0xff, 0xe7, 0xfd, 0x7a, 0x91, 0x4a, 0x00, 0x65, 0xf6, 0xbc, 0xfb,
  0x9f, 0xb8, 0x85, 0xb2, 0x4a, 0x2c, 0x09, 0xb4, 0x58, 0xd4, 0x29, 0xfc,
  0x7c, 0x08, 0x54, 0x31, 0x58, 0x61, 0x6f, 0x7f, 0x3b, 0x8d, 0x51, 0xc0,
  0xf4, 0xbb, 0xfd, 0x0d, 0xd6, 0x57, 0x36, 0x0e, 0x03, 0xca, 0x37, 0x9e,
  0x43, 0x83, 0xe1, 0xb2, 0xaf, 0x7f, 0x3c, 0xd0, 0xa0, 0x5f, 0xa6, 0x1b,
  0xfa, 0x37, 0x1f, 0x05, 0x86, 0x17, 0x84, 0x6d, 0xe5, 0x01, 0xee, 0x0f,
  0xd2, 0x63, 0x4e, 0x01, 0x00, 0x92, 0x4e, 0x76, 0xe2, 0xe5, 0xeb, 0xb7,
  0x1f, 0x5c, 0x57, 0x8b, 0x28, 0x2a, 0x6c, 0xd2, 0x83, 0xa4, 0xe8, 0x0f,
  0xf8, 0x64, 0xc4, 0x42, 0x2b, 0x0b, 0xf8, 0x5b, 0x61, 0x61, 0x06, 0x3e,
  0xe0, 0x19, 0x22, 0xc2, 0xd0, 0xe3, 0xe9, 0x59, 0x56, 0x82, 0x58, 0x1e,
  0xe4, 0xdd, 0x33, 0x43, 0x37, 0x14, 0xe0, 0x1f, 0xec, 0x29, 0x42, 0xf4,
  0x6b, 0xb7, 0x77, 0xc1, 0xc4, 0x46, 0x3d, 0xff, 0xed, 0xf3, 0x82, 0xfc,
  0xcf, 0xfd, 0x0c, 0x20, 0x42, 0xa0, 0xfd, 0xa7, 0x16, 0xff, 0xdd, 0x92,
  0x9a, 0x48, 0xe0, 0x8c, 0x14, 0xc0, 0x7a, 0x42, 0x84, 0x7c, 0x7c, 0x7f,
  0x77, 0xa9, 0x72, 0x26, 0x88, 0xd2, 0x03, 0x0e, 0xc6, 0xee, 0x92, 0x06,
  0x45, 0xae, 0x88, 0xe2, 0x16, 0x1b, 0xdc, 0x12, 0xc9, 0x48, 0x96, 0x72,
  0x10, 0xa0, 0xc2, 0xc6, 0x6a, 0x41, 0xfc, 0x07, 0x7f, 0xce, 0x7b, 0x52,
  0xa4, 0xba, 0xda, 0x96, 0xfd, 0xff, 0xff, 0xff, 0xff, 0xff, 0xff, 0xff,
  0xff, 0xff, 0xff, 0xff, 0x53, 0x00, 0x00, 0x00, 0x00, 0x7d, 0x94, 0x8e,
  0x65, 0x24, 0x63, 0x00, 0x00, 0x00, 0x00, 0xeb, 0x35, 0xa1, 0x79, 0x24,
  0x68, 0xfd, 0xff, 0xff, 0xff, 0x11, 0xae, 0x76, 0x69, 0x25, 0xe8, 0xff,
  0xff, 0xff, 0xff, 0x8e, 0xee, 0x60, 0x7b, 0x25, 0x6d, 0xfe, 0xff, 0xff,
  0xff, 0x59, 0x03, 0xf7, 0x4f, 0x24, 0xd5, 0xf3, 0xff, 0xff, 0xff, 0x12,
  0xba, 0x58, 0x46, 0x25, 0xdf, 0x00, 0x00, 0x00, 0x00, 0x38, 0x02, 0x3c,
  0x62, 0x24, 0xc8, 0xfb, 0xff, 0xff, 0xff, 0x7a, 0x9f, 0x8e, 0x44, 0x24,
  0x9d, 0x00, 0x00, 0x00, 0x00, 0xcd, 0xdc, 0x59, 0x5f, 0x24, 0x03, 0x00,
  0x00, 0x00, 0x00, 0xbd, 0x4a, 0x26, 0x5c, 0x23, 0x1c, 0xfc, 0xff, 0xff,
  0xff, 0xd3, 0xfc, 0x2c, 0x44, 0x24, 0xfa, 0xfe, 0xff, 0xff, 0xff, 0x2c,
  0xe4, 0xa7, 0x65, 0x26, 0x34, 0xff, 0xff, 0xff, 0xff, 0x84, 0x86, 0x32,
  0x5e, 0x24, 0x60, 0x00, 0x00, 0x00, 0x00, 0x5e, 0xa4, 0x67, 0x45, 0x23,
  0x8a, 0xfb, 0xff, 0xff, 0xff, 0x58, 0x68, 0xdc, 0x46, 0x24, 0xc2, 0xff,
  0xff, 0xff, 0xff, 0xe3, 0xf0, 0x34, 0x45, 0x24, 0xd2, 0x01, 0x00, 0x00,
  0x00, 0x3e, 0xd4, 0x01, 0x63, 0x25, 0x24, 0x00, 0x00, 0x00, 0x00, 0x89,
  0xaa, 0xf1, 0x49, 0x23, 0x60, 0x00, 0x00, 0x00, 0x00, 0x03, 0xe1, 0xcb,
  0x46, 0x24, 0x07, 0x00, 0x00, 0x00, 0x00, 0x01, 0x84, 0x49, 0x44, 0x23,
  0xfe, 0xfe, 0xff, 0xff, 0xff, 0xf5, 0x4e, 0xc9, 0x7c, 0x25, 0x52, 0x00,
  0x00, 0x00, 0x00, 0xb9, 0x2c, 0x3a, 0x6a, 0x24, 0xe3, 0x01, 0x00, 0x00,
  0x00, 0x1b, 0xb6, 0x39, 0x5c, 0x24, 0x99, 0x00, 0x00, 0x00, 0x00, 0xba,
  0x7f, 0xb4, 0x50, 0x23, 0xb0, 0xff, 0xff, 0xff, 0xff, 0x37, 0xb6, 0x97,
  0x52, 0x24, 0x11, 0x01, 0x00, 0x00, 0x00, 0x80, 0xea, 0x61, 0x57, 0x24,
  0x19, 0x00, 0x00, 0x00, 0x00, 0xd5, 0xe4, 0xc4, 0x53, 0x25, 0x93, 0x00,
  0x00, 0x00, 0x00, 0x03, 0x2b, 0xea, 0x63, 0x24, 0x93, 0x00, 0x00, 0x00,
  0x00, 0x1c, 0x91, 0xb7, 0x4b, 0x23, 0x7b, 0xff, 0xff, 0xff, 0xff, 0xa8,
  0x5c, 0x1f, 0x63, 0x24, 0xe3, 0xfe, 0xff, 0xff, 0xff, 0xae, 0xbc, 0x98,
  0x68, 0x25, 0x6e, 0x00, 0x00, 0x00, 0x00, 0xab, 0x04, 0xe0, 0x7f, 0x24,
  0xb2, 0xff, 0xff, 0xff, 0xff, 0x24, 0xe3, 0x98, 0x5a, 0x24, 0x31, 0xf2,
  0xff, 0xff, 0xff, 0x81, 0x69, 0x1f, 0x65, 0x26, 0x77, 0x00, 0x00, 0x00,
  0x00, 0x5c, 0xf5, 0xf3, 0x4d, 0x23, 0x64, 0x00, 0x00, 0x00, 0x00, 0x76,
  0x3d, 0x65, 0x67, 0x24, 0xec, 0xff, 0xff, 0xff, 0xff, 0x40, 0x44, 0xc6,
  0x58, 0x24, 0xc8, 0xfe, 0xff, 0xff, 0xff, 0xb6, 0x8f, 0x75, 0x65, 0x25,
  0xd5, 0x00, 0x00, 0x00, 0x00, 0x90, 0x93, 0x37, 0x63, 0x23, 0x37, 0x00,
  0x00, 0x00, 0x00, 0x64, 0x48, 0x8d, 0x6e, 0x24, 0xf9, 0xfe, 0xff, 0xff,
  0xff, 0xea, 0xf9, 0xf6, 0x4b, 0x24, 0x42, 0x01, 0x00, 0x00, 0x00, 0x44,
  0xcc, 0x91, 0x42, 0x24, 0x94, 0x00, 0x00, 0x00, 0x00, 0x57, 0x94, 0x29,
  0x7a, 0x24, 0xcd, 0xff, 0xff, 0xff, 0xff, 0xda, 0x84, 0xcf, 0x53, 0x24,
  0x49, 0x00, 0x00, 0x00, 0x00, 0xd9, 0x6f, 0xb9, 0x7f, 0x25, 0x16, 0x00,
  0x00, 0x00, 0x00, 0x04, 0x29, 0x58, 0x4f, 0x24, 0x6f, 0xfd, 0xff, 0xff,
  0xff, 0xe6, 0xe8, 0xe5, 0x6b, 0x24, 0xc1, 0xff, 0xff, 0xff, 0xff, 0xdb,
  0x3c, 0x45, 0x64, 0x24, 0x3e, 0x13, 0x54, 0xf0, 0x0d, 0x20, 0x40, 0x30,
  0x50, 0x60, 0x80, 0x70, 0x90, 0xb0, 0xc0, 0xd0, 0xa0, 0xe0, 0xf0, 0x30,
  0x01, 0x21, 0x91, 0x11, 0xf1, 0x7f, 0x51, 0xb1, 0x31, 0x82, 0x61, 0x71,
  0xd2, 0x41, 0xf1, 0xd1, 0xc2, 0x1e, 0xed, 0xc0, 0xdf, 0x22, 0x7c, 0x58,
  0xba, 0x5b, 0x19, 0xa0, 0x82, 0x5f, 0x70, 0xfb, 0x33, 0x76, 0x15, 0xc8,
  0x29, 0x5f, 0x20, 0x12, 0xc9, 0xf7, 0x81, 0x6e, 0x3c, 0xe3, 0x9a, 0x55,
  0xd5, 0x01, 0xa1, 0x68, 0x17, 0x80, 0x81, 0xba, 0x23, 0xbc, 0x1f, 0x3a,
  0x1e, 0x20, 0x6a, 0xc2, 0x85, 0x61, 0xab, 0x1d, 0x50, 0x15, 0x93, 0x96,
  0x98, 0xed, 0xc6, 0xaa, 0xee, 0xe3, 0x94, 0xe0, 0x04, 0xdf, 0xef, 0xbd,
  0xb4, 0xf2, 0x56, 0x0c, 0xb7, 0xbf, 0x25, 0x99, 0xcc, 0x43, 0xbc, 0xbf,
  0x10, 0x22, 0x1c, 0xf1, 0x7d, 0x72, 0x80, 0x81, 0x93, 0x65, 0x4b, 0x00,
  0x20, 0x12, 0x01, 0xc2, 0x9c, 0x56, 0x02, 0x00, 0xac, 0x32, 0x88, 0x30,
  0x01, 0x08, 0x95, 0x42, 0x57, 0xfc, 0xe3, 0x2c, 0x97, 0xe2, 0x0d, 0x8d,
  0x26, 0x05, 0x1c, 0xea, 0x3d, 0xf6, 0xf2, 0xe0, 0xbe, 0x7f, 0x18, 0x69,
  0xa4, 0xf9, 0x08, 0x0c, 0xe3, 0xf0, 0x7f, 0xf9, 0xce, 0x52, 0x05, 0x98,
  0x72, 0x1c, 0xc4, 0x1c, 0x30, 0xb8, 0x81, 0x82, 0xcc, 0x45, 0x07, 0x0a,
  0x01, 0x80, 0x03, 0x69, 0x20, 0xbd, 0x24, 0x42, 0x08, 0x32, 0x3f, 0xc1,
  0xc9, 0x66, 0x16, 0xc8, 0x6b, 0x38, 0xc0, 0xd6, 0x9b, 0x2e, 0xa0, 0x1c,
  0xaa, 0xe1, 0xbc, 0xf4, 0x51, 0x91, 0x0b, 0x89, 0xd5, 0x70, 0xe0, 0x2c,
  0x8d, 0x91, 0xee, 0x48, 0x00, 0x00, 0x89, 0x1a, 0x2b, 0x35, 0xb0, 0x18,
  0x24, 0xe5, 0x99, 0x0f, 0x51, 0x08, 0x6f, 0x90, 0xc1, 0xc1, 0x5b, 0x8b,
  0x3b, 0x80, 0xd3, 0x42, 0x83, 0x08, 0x82, 0x87, 0x7b, 0x03, 0x0a, 0x08,
  0xac, 0x78, 0x7f, 0xf3, 0x34, 0x46, 0x38, 0xc0, 0xb2, 0x58, 0xd3, 0x6a,
  0xe3, 0xa2, 0x67, 0xdb, 0xb8, 0x2e, 0x76, 0xb9, 0xde, 0x34, 0x81, 0x8e,
  0xcd, 0x79, 0x47, 0x90, 0x07, 0x1b, 0xee, 0xd1, 0x07, 0x34, 0x70, 0xa5,
  0x4c, 0xf8, 0x85, 0x6d, 0x3d, 0x22, 0x09, 0x00, 0xc0, 0xc5, 0x66, 0xfe,
  0x00, 0xad, 0xd7, 0xd7, 0x22, 0x63, 0x85, 0x72, 0x07, 0x1d, 0xd0, 0x04,
  0xf1, 0x25, 0x2e, 0xb5, 0x26, 0xc8, 0x5d, 0x67, 0x15, 0x0d, 0x12, 0xac,
  0x14, 0x0d, 0x7b, 0x42, 0xcf, 0x54, 0xe1, 0x02, 0x00, 0xd0, 0xfc, 0x0b,
  0xf4, 0x3d, 0x73, 0x0a, 0x00, 0x0e, 0x49, 0xcf, 0x1e, 0xfc, 0x00, 0x4b,
  0xcd, 0x80, 0x7f, 0x4d, 0xa6, 0x15, 0x86, 0xe9, 0x67, 0xb4, 0x42, 0xf8,
  0x2a, 0x70, 0x1a, 0x61, 0x0e, 0xa0, 0x6f, 0xa5, 0xe5, 0xa7, 0x9f, 0xc2,
  0x05, 0xcd, 0xd7, 0xe9, 0x34, 0x78, 0xc4, 0xcc, 0x1e, 0x70, 0x06, 0xdd,
  0x06, 0x50, 0x85, 0xc1, 0xf8, 0x62, 0x22, 0xb0, 0xcc, 0x3a, 0x23, 0x08,
  0x7a, 0xd0, 0xb8, 0x70, 0xb6, 0x00, 0xa1, 0xdf, 0x28, 0xe0, 0x70, 0x93,
  0xc2, 0x41, 0x16, 0x50, 0x37, 0x05, 0x21, 0x21, 0x9d, 0xd4, 0xf5, 0x9c,
  0xdb, 0x47, 0x60, 0x48, 0x7f, 0x19, 0x5b, 0x7e, 0x6c, 0x05, 0x9f, 0xf4,
  0x01, 0x1c, 0x10, 0xe6, 0xb9, 0xda, 0x3a, 0xce, 0x83, 0xe1, 0x87, 0x3c,
  0x44, 0x10, 0x13, 0x0a, 0x52, 0xe1, 0xf1, 0x1d, 0x73, 0xc1, 0x95, 0xf0,
  0x11, 0x00, 0xb7, 0x41, 0xea, 0x33, 0x30, 0xc8, 0xb9, 0xa1, 0xc4, 0xc3,
  0x89, 0x84, 0x82, 0xfe, 0x26, 0xfe, 0xfa, 0x9a, 0x51, 0xc9, 0x3e, 0xe8,
  0x6a, 0x74, 0x11, 0x69, 0x2d, 0x04, 0x71, 0xfc, 0xec, 0x03, 0xc6, 0x4f,
  0x00, 0x1e, 0x3c, 0x61, 0x77, 0xaf, 0x40, 0x06, 0x03, 0xbf, 0x00, 0xc6,
  0x97, 0x14, 0xc8, 0x44, 0x9c, 0x60, 0x57, 0xbb, 0x10, 0x00, 0x20, 0x7f,
  0x2e, 0x76, 0xb9, 0x47, 0xc0, 0x88, 0xd2, 0x1b, 0x03, 0x86, 0x09, 0xe2,
  0xa3, 0x65, 0xf9, 0xe7, 0x9a, 0xf6, 0x07, 0x5f, 0x57, 0xad, 0x1f, 0x40,
  0x1a, 0x99, 0x07, 0xf3, 0x8f, 0x02, 0x18, 0x38, 0x19, 0xa0, 0x7e, 0x99,
  0x11, 0x01, 0x9c, 0x30, 0x2d, 0x49, 0x20, 0x14, 0x40, 0xa0, 0x41, 0xc3,
  0xc0, 0xd4, 0x4d, 0x58, 0x35, 0x1f, 0x7d, 0x65, 0x21, 0xbf, 0x38, 0x03,
  0x19, 0x3c, 0xc8, 0x04, 0x42, 0x7a, 0xeb, 0xff, 0xcd, 0xdb, 0x9e, 0x30,
  0x5b, 0x06, 0x77, 0x5c, 0x1f, 0x24, 0xb2, 0xee, 0xf8, 0xeb, 0x41, 0xb7,
  0xbc, 0xe4, 0xf4, 0x73, 0x5e, 0x49, 0x4d, 0x9f, 0x72, 0x8a, 0x56, 0xc0,
  0x56, 0xc4, 0x25, 0x72, 0x31, 0xa2, 0x89, 0x01, 0x5c, 0x09, 0x93, 0xf2,
  0x39, 0x93, 0xaf, 0x63, 0x2f, 0x0b, 0x89, 0x29, 0x59, 0xfc, 0x7f, 0x7e,
  0x8b, 0x79, 0x79, 0x03, 0xb7, 0x3c, 0xfe, 0xd5, 0xf4, 0xb7, 0x3f, 0x36,
  0xdb, 0x72, 0xb4, 0x50, 0x80, 0x67, 0x18, 0x01, 0xcf, 0x4f, 0x4e, 0x26,
  0xdd, 0xc1, 0x3c, 0xc2, 0xc3, 0x9f, 0x0d, 0x3b, 0xfc, 0x08, 0xbc, 0xaf,
  0x10, 0x0c, 0x90, 0xfa, 0x9e, 0xfd, 0x4c, 0x45, 0x40, 0x42, 0x20, 0xcd,
  0x43, 0x33, 0xc7, 0xfb, 0x8f, 0x15, 0xb1, 0x14, 0xc3, 0x11, 0xbc, 0x65,
  0x97, 0x78, 0xe1, 0x75, 0xac, 0x00, 0x3e, 0x5c, 0x08, 0x3c, 0xaf, 0xa7,
  0xb0, 0x87, 0x0a, 0x58, 0x2b, 0x82, 0xc2, 0x5c, 0xf4, 0xfe, 0xd7, 0x93,
  0xc0, 0xf4, 0x1d, 0x28, 0xfe, 0xdc, 0xb7, 0xdb, 0x50, 0x20, 0xe0, 0x3d,
  0x97, 0x10, 0x20, 0x68, 0x98, 0x2a, 0x38, 0xea, 0xfc, 0xbd, 0xf9, 0x86,
  0x03, 0x14, 0x04, 0x09, 0xad, 0xb0, 0xa1, 0x37, 0x26, 0x06, 0x00, 0x77,
  0x37, 0x05, 0xb9, 0x02, 0xf8, 0xfb, 0xa7, 0xf0, 0xd5, 0x0e, 0xcc, 0xbc,
  0xff, 0x07, 0x82, 0x88, 0x5b, 0x1e, 0xa8, 0x08, 0x3f, 0xf0, 0xc3, 0xcb,
  0x19, 0xe0, 0x73, 0x80, 0xd0, 0xa9, 0x85, 0x38, 0x6a, 0x78, 0x0c, 0xc5,
  0x08, 0x20, 0x3a, 0x82, 0x8f, 0xc1, 0xab, 0x19, 0x10, 0x41, 0x4f, 0x00,
  0xf8, 0x09, 0xd1, 0x42, 0x50, 0xc2, 0xf9, 0xc6, 0x11, 0x82, 0xe0, 0xbb,
  0xe1, 0xce, 0x77, 0x84, 0xe8, 0xe3, 0x1f, 0xe4, 0x7b, 0x42, 0xa2, 0x02,
  0x80, 0x34, 0x04, 0x33, 0x0e, 0xe6, 0xff, 0x23, 0x66, 0x4f, 0x04, 0x25,
  0x24, 0x1e, 0xac, 0x17, 0xa8, 0xad, 0x1c, 0xb0, 0xfb, 0x01, 0x02, 0x04,
  0x80, 0xde, 0x37, 0x69, 0x78, 0x03, 0x82, 0x64, 0x08, 0x08, 0xd4, 0x68,
  0x48, 0xc4, 0x3f, 0xfe, 0x95, 0x70, 0xae, 0x81, 0xbc, 0xa8, 0xf8, 0xf9,
  0xdf, 0x60, 0x11, 0xbe, 0x5f, 0xc4, 0x0f, 0xa1, 0xc5, 0x00, 0x4a, 0x04,
  0x02, 0xfb, 0xe6, 0x25, 0x41, 0x43, 0xa2, 0x6a, 0x1d, 0x6e, 0x3e, 0x8c,
  0xe8, 0x3f, 0x83, 0xdf, 0x09, 0xad, 0x91, 0xda, 0xfe, 0xfb, 0x1b, 0xfa,
  0x43, 0x00, 0x8a, 0xfb, 0x7b, 0x11, 0x7f, 0xcb, 0x3f, 0xde, 0xaa, 0x8f,
  0x34, 0x1f, 0xf0, 0x45, 0x29, 0x13, 0x01, 0x20, 0xf8, 0xef, 0x23, 0x1d,
  0x70, 0x43, 0xb0, 0x10, 0x64, 0x22, 0x20, 0xfe, 0xff, 0xef, 0x63, 0x1e,
  0x57, 0xa2, 0x60, 0xe1, 0x96, 0x4e, 0x02, 0x7c, 0xdb, 0xc5, 0x30, 0x3a,
  0x7d, 0xf8, 0x51, 0x32, 0x64, 0x45, 0x63, 0x71, 0x7f, 0xe7, 0x1e, 0x17,
  0x70, 0x33, 0x00, 0xfc, 0xfb, 0x65, 0x79, 0xfd, 0xf4, 0x4b, 0x64, 0x43,
  0x97, 0x01, 0xa0, 0x09, 0xda, 0x74, 0x38, 0x3f, 0x21, 0x72, 0x20, 0x60,
  0x6a, 0xf5, 0xe3, 0xff, 0xcb, 0x00, 0xd2, 0xde, 0x0e, 0x9e, 0x60, 0x34,
  0xe4, 0xb9, 0x71, 0x54, 0x27, 0xe8, 0x81, 0xcf, 0x01, 0x00, 0x14, 0x31,
  0x0f, 0x77, 0xcf, 0x05, 0x60, 0x14, 0xe8, 0x7d, 0xbf, 0x37, 0xe4, 0xbb,
  0x06, 0xa0, 0xe3, 0x5a, 0x0e, 0xdf, 0x37, 0xbe, 0x89, 0x52, 0x2a, 0xe0,
  0xf9, 0xff, 0x07, 0x89, 0x0f, 0x8a, 0xc7, 0x1b, 0x88, 0x01, 0x08, 0x8b,
  0x22, 0xc2, 0x50, 0x37, 0xf0, 0xf4, 0x34, 0x4d, 0x80, 0x28, 0xaa, 0x4e,
  0x00, 0xda, 0x00, 0x81, 0x2b, 0x0f, 0x3f, 0xf1, 0xc1, 0x50, 0x62, 0x30,
  0x92, 0xea, 0x7f, 0xbf, 0x15, 0xed, 0xa1, 0x08, 0x5c, 0x1c, 0x45, 0xa7,
  0x7f, 0xfe, 0x1f, 0xb9, 0x99, 0x87, 0xca, 0x35, 0x5c, 0xa1, 0xe2, 0xbf,
  0xb7, 0x0f, 0xad, 0xdc, 0x35, 0xb2, 0xdf, 0xfc, 0xaf, 0xef, 0xb2, 0xef,
  0x1d, 0x7f, 0xfe, 0xf9, 0xef, 0xc7, 0x98, 0x71, 0x02, 0x83, 0x89, 0x81,
  0xff, 0xf3, 0x23, 0x83, 0x0c, 0xb9, 0xfd, 0xa3, 0x06, 0xd6, 0x33, 0xca,
  0xab, 0x05, 0x50, 0x1c, 0xe7, 0x0f, 0x85, 0x85, 0xb9, 0xb6, 0xb1, 0x74,
  0x11, 0x10, 0x22, 0xf6, 0xfe, 0xfd, 0x9f, 0x0e, 0x58, 0x34, 0xff, 0x9e,
  0x3d, 0x50, 0x7d, 0x37, 0x38, 0xde, 0xfd, 0xb6, 0x1c, 0xcf, 0xbf, 0x70,
  0x0e, 0x21, 0x88, 0x00, 0xf8, 0x48, 0x08, 0xf6, 0xb2, 0xb3, 0x5d, 0x81,
  0x65, 0x1b, 0xdb, 0xf1, 0xfc, 0xe3, 0xd1, 0x47, 0x13, 0x00, 0x45, 0x49,
  0x87, 0x70, 0xb3, 0x15, 0xe2, 0x01, 0x44, 0x00, 0x17, 0xff, 0xd7, 0xbf,
  0x10, 0xad, 0xc0, 0x52, 0x7b, 0xb1, 0x76, 0xe4, 0xf9, 0xff, 0xbf, 0xf5,
  0x71, 0x65, 0xf1, 0xe1, 0xef, 0xb7, 0x8e, 0x63, 0x3e, 0x29, 0x89, 0xfc,
  0xf6, 0x9b, 0x44, 0x03, 0x0b, 0x70, 0x36, 0x1f, 0x23, 0x9c, 0x01, 0xc0,
  0x27, 0xf0, 0xc9, 0xf5, 0xd0, 0x67, 0x30, 0x22, 0x30, 0x99, 0x81, 0x79,
  0xa1, 0x67, 0x73, 0x26, 0x16, 0x81, 0xff, 0x0b, 0x34, 0x01, 0xef, 0x7d,
  0xfe, 0xf1, 0x50, 0x73, 0x31, 0xfb, 0x1f, 0xfe, 0x9f, 0x00, 0xa6, 0xf8,
  0xe7, 0x2f, 0x26, 0x04, 0xf1, 0xbc, 0x4c, 0x07, 0x80, 0xe7, 0xc7, 0x08,
  0xa4, 0xa1, 0xe8, 0xf7, 0xfe, 0xca, 0x15, 0x6c, 0x2f, 0x01, 0xc8, 0x0c,
  0xfe, 0x7f, 0xf8, 0xcf, 0x93, 0x07, 0xd9, 0x17, 0x11, 0xf8, 0x3c, 0x7f,
  0xd1, 0x04, 0xb6, 0x3f, 0x3f, 0x47, 0x63, 0xf6, 0xfe, 0x7f, 0x89, 0x2d,
  0xb1, 0x61, 0x38, 0xe3, 0xfe, 0xff, 0xbf, 0xe1, 0xa3, 0x76, 0x08, 0x00,
  0x18, 0x8c, 0xef, 0x3c, 0xec, 0xeb, 0xd9, 0x1c, 0xd3, 0x55, 0xfc, 0x85,
  0x03, 0xdc, 0x09, 0xd9, 0x04, 0xc0, 0xd9, 0xae, 0xe1, 0x50, 0x87, 0xcf,
  0xde, 0xbb, 0xc6, 0x50, 0x40, 0x55, 0xc9, 0x06, 0x3c, 0x03, 0x14, 0xfb,
  0xde, 0xe1, 0xcd, 0x03, 0x93, 0x08, 0x07, 0xf8, 0x3c, 0x7d, 0x48, 0x02,
  0xf8, 0x5f, 0x56, 0x4c, 0x60, 0x64, 0xe0, 0xe1, 0x44, 0x2a, 0x99, 0x4a,
  0xe8, 0x9e, 0xbb, 0x99, 0x98, 0x99, 0x0b, 0x49, 0x00, 0x5f, 0x14, 0x94,
  0xd8, 0x01, 0x5a, 0x0c, 0x04, 0x3a, 0x44, 0xb4, 0x7f, 0xff, 0x9c, 0xbf,
  0xaa, 0x52, 0x93, 0xc1, 0x06, 0x41, 0x81, 0x43, 0x08, 0x44, 0xe9, 0xc8,
  0x9f, 0x80, 0x08, 0x0e, 0xbc, 0x8c, 0x47, 0x26, 0x16, 0x6c, 0xe3, 0xcf,
  0x7f, 0x0f, 0x89, 0x82, 0x32, 0x88, 0xf8, 0xfb, 0x8f, 0x6a, 0x20, 0xd0,
  0x0d, 0x4b, 0x07, 0x86, 0x32, 0x15, 0x63, 0x72, 0x91, 0xd4, 0x37, 0xfe,
  0x65, 0x0b, 0x59, 0x43, 0x33, 0xff, 0xd9, 0x0f, 0xd5, 0x87, 0x00, 0x80,
  0x1e, 0xec, 0x02, 0x40, 0x00, 0xc8, 0x6d, 0x40, 0x51, 0xd0, 0x08, 0x0c,
  0x6c, 0x80, 0xa9, 0x0a, 0x65, 0xe2, 0x5f, 0x17, 0x7e, 0x3f, 0x22, 0xac,
  0x5a, 0x3e, 0x04, 0x1e, 0xbc, 0xcc, 0x5d, 0x1e, 0xc6, 0x1f, 0x85, 0x80,
  0x30, 0x05, 0x0f, 0x49, 0x0f, 0xdf, 0x46, 0xec, 0xd9, 0x19, 0x44, 0x81,
  0xcd, 0xaf, 0x5b, 0x95, 0xe0, 0x07, 0xfd, 0x42, 0x72, 0x3c, 0xd2, 0x8e,
  0x55, 0xf6, 0xf0, 0x8d, 0xbe, 0x1d, 0x10, 0x07, 0xc3, 0x7b, 0x98, 0xbf,
  0x21, 0x24, 0x06, 0xdc, 0xa6, 0x33, 0xbf, 0x02, 0x09, 0x04, 0xc2, 0xb7,
  0xc0, 0xbc, 0x22, 0x64, 0xe7, 0x11, 0xee, 0x09, 0x80, 0x02, 0xb5, 0x01,
  0xd9, 0x0e, 0xff, 0x3e, 0xe2, 0x93, 0x85, 0x4a, 0xf2, 0x83, 0x9b, 0x04,
  0x41, 0x54, 0x04, 0x81, 0xa1, 0x1c, 0xab, 0xf1, 0x05, 0x83, 0xe9, 0x1e,
  0x2b, 0x74, 0x16, 0xca, 0x81, 0xe0, 0x70, 0x31, 0x5c, 0x28, 0xbd, 0x84,
  0x41, 0x78, 0xf9, 0x0f, 0x44, 0x58, 0x20, 0x1d, 0xc6, 0x33, 0x6e, 0x2e,
  0x6f, 0x77, 0xc0, 0x7f, 0xab, 0x2e, 0x09, 0x41, 0x04, 0x5f, 0xe2, 0xe1,
  0x1b, 0x37, 0x7e, 0x39, 0xe3, 0x39, 0xee, 0x41, 0xa0, 0x22, 0x04, 0x0e,
  0x8c, 0x37, 0x32, 0x76, 0x36, 0x04, 0x80, 0x04, 0x7c, 0xca, 0xd8, 0xc2,
  0x40, 0xdc, 0x8d, 0xc7, 0xc5, 0x38, 0x68, 0x00, 0xb1, 0x03, 0x0e, 0xee,
  0x18, 0xaf, 0xa6, 0x14, 0x66, 0x09, 0x60, 0xeb, 0xed, 0x06, 0x28, 0x1e,
  0xe0, 0x81, 0xff, 0xf7, 0x5c, 0x3c, 0x00, 0xa4, 0x50, 0x87, 0xbf, 0x5b,
  0x01, 0x61, 0x07, 0x21, 0x00, 0x87, 0xc0, 0x3a, 0x96, 0x00, 0x00, 0xa0,
  0x10, 0x11, 0xd4, 0x3a, 0x28, 0x08, 0xc8, 0x39, 0x72, 0xda, 0x30, 0x6c,
  0x04, 0xb4, 0xcc, 0x6f, 0xf0, 0x75, 0x2c, 0x54, 0x36, 0x8d, 0x30, 0x85,
  0x80, 0xe0, 0x85, 0xc1, 0x5c, 0x59, 0x08, 0x78, 0x1d, 0x62, 0x94, 0x9a,
  0x0e, 0x14, 0x62, 0x0b, 0x4f, 0x00, 0x5e, 0x14, 0x22, 0x80, 0x7d, 0x0f,
  0xa0, 0x4d, 0x4b, 0xae, 0xc7, 0x09, 0x40, 0xf3, 0x13, 0x55, 0x14, 0x00,
  0x84, 0xa2, 0xbd, 0x6b, 0xb7, 0x20, 0x01, 0xd0, 0xbf, 0x83, 0x01, 0x50,
  0x72, 0xc3, 0x94, 0xc2, 0x08, 0xaa, 0xa4, 0x66, 0x50, 0x14, 0xeb, 0xf1,
  0x06, 0xe8, 0xa9, 0x72, 0x4a, 0x01, 0x61, 0x18, 0x75, 0x83, 0x3f, 0x10,
  0x27, 0x04, 0x11, 0xca, 0xfc, 0x08, 0x30, 0xd4, 0x96, 0x07, 0x04, 0x83,
  0x8a, 0x25, 0x65, 0x04, 0x14, 0xc4, 0x08, 0x68, 0xb2, 0x38, 0x58, 0xb0,
  0x0a, 0x12, 0x46, 0x00, 0x05, 0xf8, 0x90, 0x4b, 0xe2, 0x89, 0xe5, 0x8b,
  0xc0, 0xb5, 0x06, 0x50, 0x10, 0x24, 0x23, 0x00, 0x6f, 0x8d, 0xaf, 0xc4,
  0x59, 0x18, 0x08, 0x27, 0x10, 0x0f, 0x48, 0x12, 0x46, 0xc5, 0xdd, 0x06,
  0xf8, 0xbf, 0x32, 0x0f, 0x04, 0x00, 0x4e, 0x80, 0x5b, 0x2c, 0x26, 0x80,
  0x1c, 0x9c, 0xb8, 0xde, 0xbd, 0x00, 0x30, 0xfe, 0x14, 0xf1, 0x33, 0x48,
  0x55, 0x21, 0x68, 0x41, 0x08, 0x00, 0x4f, 0x34, 0x61, 0x10, 0x08, 0x5d,
  0x00, 0xe5, 0x4c, 0x12, 0x80, 0x2c, 0x33, 0x80, 0x11, 0x00, 0x00, 0xc6,
  0x00, 0x21, 0xa8, 0xbf, 0x82, 0x07, 0xc0, 0x50, 0x0d, 0xb0, 0x1c, 0x28,
  0x23, 0x84, 0x94, 0x04, 0x07, 0x00, 0x00, 0x11, 0x86, 0x41, 0x98, 0xc1,
  0xc2, 0x1f, 0x28, 0x2c, 0x16, 0x99, 0xbd, 0xbc, 0xfc, 0xd4, 0x8c, 0xf3,
  0x4a, 0x1d, 0x61, 0x72, 0x5e, 0xb0, 0x42, 0x79, 0x53, 0xe0, 0x9f, 0x81,
  0xb2, 0x94, 0x5d, 0x02, 0x62, 0x7f, 0xf7, 0x58, 0x01, 0x67, 0x10, 0x7e,
  0x29, 0x23, 0x80, 0x50, 0xa8, 0x07, 0x00, 0x11, 0x0c, 0xd3, 0x0c, 0xd3,
  0x12, 0x8a, 0xc1, 0x36, 0xe9, 0xdc, 0x79, 0x62, 0x9f, 0x56, 0xb0, 0x70,
  0x29, 0x89, 0x2f, 0xdc, 0x80, 0xa3, 0x82, 0xef, 0x0e, 0xc6, 0x95, 0x5b,
  0x75, 0x05, 0x02, 0xf0, 0x8a, 0xac, 0x4c, 0xaf, 0x00, 0x00, 0x26, 0xa2,
  0xa5, 0x04, 0x80, 0x46, 0x79, 0xbf, 0xab, 0xc7, 0x49, 0xa6, 0x04, 0xc0,
  0x82, 0x30, 0x14, 0x80, 0xdf, 0xf9, 0x8d, 0x8b, 0x7e, 0x2f, 0x72, 0xd6,
  0x01, 0xe1, 0x88, 0x93, 0x8d, 0xe1, 0xaf, 0x41, 0x2a, 0x3e, 0xd1, 0xf6,
  0xf7, 0x4a, 0x0e, 0xe8, 0x83, 0x20, 0xe0, 0xf9, 0xf3, 0x93, 0xfb, 0x0b,
  0x30, 0xc5, 0x16, 0xc4, 0x19, 0x05, 0x80, 0x43, 0xfe, 0x0f, 0x33, 0x02,
  0xe8, 0x63, 0xb8, 0xc1, 0x0b, 0x48, 0x04, 0x36, 0x40, 0x51, 0x65, 0x10,
  0xc0, 0x5c, 0x43, 0x13, 0x20, 0x11, 0x00, 0x68, 0x28, 0x2d, 0x47, 0x02,
  0x60, 0x89, 0x59, 0x62, 0x1f, 0xac, 0xb0, 0x44, 0xc0, 0x12, 0xe2, 0x14,
  0x60, 0x6e, 0x12, 0x90, 0x4a, 0x12, 0x00, 0x0c, 0x28, 0x14, 0x12, 0xc0,
  0x88, 0x80, 0x01, 0x76, 0x5d, 0x22, 0x42, 0x08, 0xc2, 0x00, 0x97, 0xc0,
  0x65, 0x03, 0x50, 0x45, 0x9c, 0x10, 0xcd, 0x57, 0x81, 0x05, 0x12, 0x86,
  0x48, 0xa1, 0x8e, 0x8c, 0x9f, 0xb1, 0x39, 0xf5, 0x32, 0x67, 0x4e, 0x63,
  0x07, 0x3f, 0xd1, 0x7f, 0x8e, 0xe7, 0x67, 0x1e, 0x5e, 0xd4, 0x26, 0x13,
  0xa2, 0x10, 0xdf, 0x7d, 0xd7, 0xd9, 0x22, 0x8c, 0xf7, 0xf8, 0x07, 0xe4,
  0x25, 0x90, 0x06, 0xef, 0xfd, 0xe7, 0x21, 0xbe, 0x92, 0x7c, 0x19, 0x67,
  0xc0, 0x40, 0xfd, 0x55, 0xc7, 0x44, 0x71, 0x1b, 0x50, 0x2e, 0x70, 0x1a,
  0x5a, 0x20, 0x28, 0xde, 0xd3, 0xff, 0xf5, 0xc2, 0x11, 0xfb, 0xf5, 0xe6,
  0xac, 0xbc, 0xbd, 0xea, 0xfa, 0x73, 0x88, 0xc3, 0x06, 0xee, 0x42, 0xcc,
  0x03, 0x18, 0x2e, 0x19, 0x9b, 0xfe, 0xaf, 0x19, 0x8f, 0x70, 0x80, 0x01,
  0xa4, 0x8c, 0x24, 0xdf, 0x03, 0x80, 0x2b, 0x0e, 0xf4, 0xba, 0x19, 0x01,
  0x0f, 0xdf, 0x52, 0x23, 0x30, 0x90, 0xfa, 0x4b, 0x12, 0xe6, 0xd8, 0xe6,
  0x88, 0xea, 0x30, 0xca, 0x2d, 0xc3, 0x62, 0x9d, 0x8c, 0x39, 0x82, 0x9d,
  0x81, 0x8e, 0x7c, 0x90, 0xae, 0x14, 0x33, 0x9c, 0xb1, 0x52, 0x20, 0x47,
  0x04, 0x00, 0x1c, 0xef, 0xfd, 0x17, 0xb0, 0x5e, 0x28, 0x4b, 0x50, 0x0e,
  0xfc, 0x04, 0x6a, 0x00, 0x83, 0x82, 0xb9, 0xad, 0x91, 0x91, 0x01, 0xa0,
  0x10, 0x42, 0xd0, 0x13, 0x40, 0x3c, 0x00, 0x01, 0xc9, 0x59, 0x05, 0x4d,
  0xa3, 0x76, 0x49, 0x15, 0x00, 0x1f, 0x69, 0x56, 0x27, 0x4d, 0x12, 0x06,
  0x76, 0xbf, 0xdf, 0x24, 0x46, 0x61, 0x21, 0xac, 0x30, 0xc2, 0x3c, 0xfd,
  0x53, 0xf8, 0xeb, 0x3d, 0xfe, 0x1b, 0x5f, 0xe9, 0x63, 0x50, 0x5b, 0x08,
  0x0a, 0x00, 0x4e, 0x16, 0x3b, 0xdc, 0x17, 0xd8, 0x06, 0xc6, 0x82, 0xe1,
  0x40, 0x60, 0xc3, 0x2e, 0x32, 0xce, 0x75, 0xec, 0x85, 0xbf, 0xc4, 0xde,
  0x2e, 0x4a, 0x66, 0x85, 0x9e, 0xcb, 0x74, 0x46, 0x10, 0xa0, 0x10, 0xbf,
  0xcc, 0x18, 0xc8, 0x84, 0xbb, 0xfd, 0x48, 0x5a, 0x0c, 0x17, 0xe0, 0xb8,
  0x19, 0xbf, 0xaf, 0x21, 0x10, 0x90, 0x46, 0x39, 0x81, 0x35, 0xb1, 0xfd,
  0x2a, 0x00, 0xe0, 0x3f, 0x99, 0xeb, 0x01, 0xcf, 0x84, 0xd9, 0x8e, 0xb3,
  0x14, 0x21, 0x8c, 0xc8, 0x2d, 0x20, 0x23, 0xfa, 0x32, 0x10, 0xda, 0xee,
  0x64, 0x00, 0xa0, 0x27, 0x08, 0xbe, 0xc2, 0x02, 0xfe, 0x0b, 0x55, 0x30,
  0x00, 0x48, 0x40, 0x80, 0x20, 0x80, 0xa1, 0x30, 0x86, 0x08, 0x21, 0x7d,
  0x07, 0x58, 0x20, 0xa8, 0x29, 0xd3, 0x97, 0x29, 0x02, 0xe7, 0xb7, 0x63,
  0x35, 0xc1, 0xdc, 0xd1, 0xf5, 0xec, 0xf6, 0x7b, 0x24, 0xd4, 0x33, 0xe2,
  0xe0, 0xf0, 0x5a, 0x23, 0x65, 0x0d, 0xba, 0x2c, 0xde, 0x6d, 0x2d, 0x94,
  0x64, 0x00, 0x03, 0xd0, 0xc2, 0x20, 0xc0, 0x0b, 0x73, 0xaa, 0x49, 0x5c,
  0x00, 0x08, 0x30, 0xca, 0x79, 0xc4, 0xfd, 0x86, 0x79, 0x58, 0x38, 0x2e,
  0x00, 0x94, 0x52, 0xca, 0x47, 0x06, 0xc0, 0xba, 0x21, 0x94, 0x0a, 0x09,
  0x46, 0x25, 0x01, 0x00, 0x38, 0xa1, 0x10, 0x01, 0x82, 0x25, 0x25, 0x44,
  0xc4, 0x81, 0x48, 0x40, 0x8c, 0x33, 0x08, 0x00, 0x01, 0xd0, 0xd6, 0x03,
  0xf8, 0x24, 0xf4, 0x00, 0x56, 0xb3, 0xeb, 0x84, 0x40, 0x11, 0x04, 0xf2,
  0xe2, 0x40, 0xf4, 0x8a, 0x0e, 0xbe, 0x29, 0xdb, 0xf1, 0x0f, 0x01, 0x85,
  0x22, 0x4c, 0x90, 0xf3, 0x5e, 0xfc, 0x77, 0xca, 0x48, 0x73, 0xfc, 0x97,
  0x1b, 0x6e, 0x4c, 0xc8, 0xde, 0xd8, 0x47, 0x38, 0x6d, 0xc3, 0xaf, 0x0b,
  0x80, 0x19, 0xc5, 0x31, 0xe0, 0xd3, 0xd3, 0x75, 0x02, 0xb8, 0xa4, 0xe1,
  0x3a, 0x52, 0x30, 0x98, 0x96, 0x2f, 0x00, 0x48, 0x3d, 0x26, 0x0b, 0xe1,
  0xc2, 0x76, 0x57, 0x46, 0x00, 0x00, 0x30, 0xd6, 0xcb, 0x08, 0xef, 0x5d,
  0x9f, 0xa8, 0x66, 0x6d, 0x11, 0x8e, 0x6e, 0x7c, 0x57, 0xb0, 0xbe, 0x12,
  0x3a, 0xd1, 0xaa, 0x02, 0x22, 0x91, 0xe0, 0xf7, 0xdf, 0xff, 0x03, 0x50,
  0x58, 0x72, 0x33, 0x96, 0x70, 0xd6, 0x95, 0xe7, 0xb1, 0xef, 0x81, 0x86,
  0xe9, 0x69, 0x03, 0x68, 0xa2, 0xa7, 0x80, 0xc0, 0x3d, 0xf5, 0x22, 0x06,
  0x22, 0x40, 0xf1, 0xfd, 0x3f, 0xc2, 0x05, 0xe9, 0xc2, 0xf5, 0xdf, 0xbe,
  0x27, 0x4c, 0x6f, 0xfc, 0xd7, 0xc2, 0xc3, 0xfb, 0x9d, 0x17, 0x59, 0x2d,
  0x20, 0xe7, 0x8b, 0x59, 0xb0, 0x1f, 0x78, 0x01, 0x20, 0x7d, 0x55, 0xcf,
  0x9d, 0x47, 0x2b, 0x8a, 0x9a, 0x86, 0x00, 0x08, 0x16, 0x4d, 0x09, 0x07,
  0x11, 0xfc, 0x83, 0x00, 0x00, 0x02, 0x08, 0xfa, 0xfb, 0x42, 0xcb, 0x4a,
  0xcc, 0x7c, 0x1a, 0x7f, 0x7f, 0xf2, 0x97, 0xee, 0x2e, 0xe6, 0xbc, 0x9b,
  0xd2, 0xb7, 0x3f, 0xe5, 0xb1, 0x13, 0x7b, 0x06, 0xc0, 0x5f, 0xda, 0x36,
  0xcd, 0x7c, 0xdf, 0xf3, 0x33, 0xc9, 0x38, 0x18, 0x68, 0xfc, 0xf0, 0x9f,
  0xe1, 0x00, 0x80, 0xe0, 0x36, 0x04, 0xdd, 0xf9, 0x01, 0x02, 0x00, 0x2a,
  0x25, 0x8e, 0xe6, 0xf9, 0xdb, 0x02, 0xe4, 0xfa, 0x8f, 0x3f, 0x07, 0x7c,
  0xd4, 0xff, 0xfd, 0xfe, 0x1a, 0x46, 0xf9, 0x6f, 0x5f, 0x04, 0xba, 0xdb,
  0x07, 0xae, 0xe0, 0xbe, 0xfe, 0x41, 0x15, 0x57, 0x29, 0x07, 0xee, 0xe7,
  0x50, 0xdf, 0x3d, 0x07, 0x78, 0x90, 0x80, 0x26, 0x20, 0xc0, 0xc0, 0xf7,
  0x83, 0x88, 0xc0, 0x11, 0x17, 0x37, 0x27, 0x75, 0x61, 0x98, 0xa0, 0x28,
  0x48, 0x19, 0x63, 0x11, 0x0e, 0x1e, 0x56, 0x14, 0x88, 0xd1, 0xb4, 0x79,
  0xfc, 0x3c, 0x23, 0xb2, 0x36, 0x38, 0x40, 0xe8, 0x8a, 0xa4, 0x7a, 0xde,
  0x3b, 0xf0, 0x10, 0xc3, 0x44, 0x41, 0x1c, 0x00, 0xb7, 0xb3, 0xf8, 0x7f,
  0x80, 0x19, 0x07, 0x22, 0x30, 0x68, 0xc0, 0xfb, 0xfe, 0x48, 0x85, 0x05,
  0x44, 0x6f, 0xfc, 0x1f, 0xef, 0xe3, 0xff, 0xe6, 0xef, 0xff, 0x0f, 0xd4,
  0xff, 0xff, 0xf7, 0x6d, 0xe0, 0x71, 0x15, 0x97, 0x71, 0x64, 0x65, 0x69,
  0x04, 0x00, 0x22, 0xe3, 0x54, 0xb0, 0x0c, 0x01, 0x0c, 0xc0, 0x53, 0x83,
  0x20, 0xca, 0x60, 0x8b, 0x03, 0x43, 0xd3, 0x48, 0x92, 0xf0, 0x09, 0x78,
  0x1f, 0x00, 0x3b, 0xc5, 0x03, 0x71, 0x78, 0xbf, 0xe9, 0xf0, 0x9c, 0xf8,
  0xff, 0xb8, 0xd7, 0xd0, 0x70, 0xc4, 0xa7, 0xcf, 0x3a, 0x98, 0x19, 0x80,
  0x81, 0xd7, 0xca, 0x98, 0x49, 0x20, 0x61, 0x9a, 0x46, 0x2e, 0x10, 0x00,
  0xd5, 0x00, 0x48, 0x9b, 0x79, 0x18, 0x1c, 0xfe, 0x5e, 0x58, 0xd0, 0x45,
  0xcc, 0x80, 0xc8, 0xfb, 0xd8, 0x5b, 0xd8, 0xb3, 0xf0, 0x9b, 0x0f, 0x4a,
  0xcc, 0x32, 0x84, 0xe6, 0xbf, 0xf7, 0x78, 0xfa, 0x7f, 0x7e, 0x83, 0x9a,
  0x0a, 0x38, 0x90, 0x44, 0x7e, 0x4f, 0xc5, 0x05, 0xf8, 0xfc, 0xb0, 0x05,
  0xbd, 0x41, 0x30, 0x64, 0x4d, 0x4d, 0xe1, 0xff, 0xff, 0xef, 0x23, 0x0b,
  0x80, 0x10, 0x00, 0x85, 0x3f, 0xf3, 0xdf, 0xf7, 0xfa, 0x37, 0xb8, 0x39,
  0x39, 0xcf, 0x5c, 0x89, 0xc1, 0x1e, 0x35, 0x48, 0x21, 0xb4, 0x05, 0xd0,
  0x73, 0x6b, 0x0d, 0x07, 0x18, 0xfe, 0xff, 0x5c, 0x22, 0x00, 0x62, 0x39,
  0xff, 0x78, 0xc6, 0x5a, 0x02, 0x04, 0x38, 0xea, 0x45, 0xe0, 0x01, 0xff,
  0x5f, 0xbc, 0xf5, 0xc9, 0xca, 0x4c, 0x40, 0x82, 0xf1, 0x81, 0x00, 0x04,
  0xff, 0xff, 0x86, 0xa1, 0x05, 0x12, 0x66, 0x6f, 0x3f, 0xf7, 0x25, 0xb1,
  0x7b, 0xf0, 0x9d, 0xf8, 0x37, 0x80, 0x90, 0x37, 0x8e, 0xb0, 0x02, 0x24,
  0x08, 0x4d, 0x98, 0x90, 0xc4, 0x5e, 0x00, 0x30, 0x58, 0xa1, 0x73, 0xe6,
  0x52, 0x66, 0x9f, 0xbb, 0x51, 0x12, 0x45, 0x5c, 0xcc, 0xfe, 0x90, 0x6f,
  0xa0, 0x7c, 0x5f, 0x86, 0xf9, 0xef, 0x13, 0xdb, 0x0e, 0xde, 0x79, 0xef,
  0xb2, 0x00, 0x00, 0xa8, 0x1c, 0xf1, 0x32, 0x03, 0xb4, 0x28, 0x01, 0x05,
  0x98, 0xc2, 0x86, 0xa1, 0x2d, 0x41, 0x08, 0xd4, 0x1a, 0x01, 0xc0, 0xc0,
  0xcc, 0x86, 0x18, 0xcc, 0x84, 0x04, 0x0c, 0x40, 0xcc, 0x85, 0x09, 0x06,
  0x85, 0x6f, 0xef, 0x95, 0xf8, 0x53, 0x7f, 0xd8, 0x42, 0x81, 0x57, 0x4a,
  0x9e, 0x1c, 0x73, 0xee, 0xfd, 0x92, 0x31, 0x60, 0xe9, 0x01, 0x48, 0x8a,
  0xcf, 0x7b, 0x9e, 0xb9, 0xde, 0x3c, 0xbd, 0x6c, 0xf0, 0x4e, 0xb5, 0x40,
  0x72, 0x8a, 0x6b, 0x11, 0x7e, 0x75, 0x28, 0x2c, 0x9c, 0xa3, 0x00, 0x2b,
  0x5c, 0x01, 0xc2, 0xde, 0xfb, 0x00, 0x1b, 0xb8, 0xc6, 0x26, 0x05, 0x40,
  0x72, 0xc4, 0xbb, 0xea, 0x2f, 0xb0, 0xa9, 0x68, 0x84, 0xab, 0x63, 0x85,
  0x52, 0xc8, 0x6e, 0xf4, 0x00, 0x10, 0x68, 0xf4, 0x31, 0x13, 0x50, 0x00,
  0x06, 0x9d, 0xa1, 0x18, 0x0d, 0xc0, 0x5b, 0xed, 0xfc, 0x29, 0xa3, 0x0d,
  0x98, 0xce, 0x99, 0xe8, 0xbf, 0x9d, 0x25, 0x04, 0x21, 0x85, 0x03, 0xdc,
  0xdf, 0x18, 0xbc, 0xb9, 0x90, 0xae, 0x60, 0x43, 0x50, 0x80, 0x32, 0x97,
  0x34, 0x82, 0x59, 0xd7, 0x28, 0x48, 0x50, 0x62, 0xcf, 0xaf, 0x25, 0x00,
  0x01, 0x72, 0x4c, 0x31, 0x29, 0x07, 0xbc, 0xc4, 0x4f, 0x5a, 0x00, 0x82,
  0x4c, 0xf0, 0x03, 0x82, 0x92, 0x27, 0x01, 0x1e, 0xaf, 0xbc, 0x62, 0x80,
  0x04, 0xd5, 0xe3, 0x81, 0xbd, 0x30, 0x31, 0xa1, 0x49, 0x2c, 0xb1, 0x0a,
  0x9f, 0x25, 0xe1, 0xef, 0x0e, 0x33, 0x59, 0x00, 0xd8, 0xaf, 0xaf, 0x1d,
  0x08, 0x2f, 0xff, 0x91, 0x1a, 0x57, 0xb8, 0x37, 0x93, 0x14, 0x4a, 0x97,
  0xee, 0x25, 0xa2, 0x47, 0x80, 0xd1, 0xb9, 0x9d, 0xfe, 0x90, 0x00, 0x80,
  0x04, 0x44, 0x8e, 0x08, 0x63, 0x88, 0x03, 0xc1, 0x7b, 0xc2, 0x05, 0xe0,
  0x84, 0x10, 0x01, 0x01, 0xec, 0xfd, 0x16, 0x00, 0xfc, 0x0e, 0x4b, 0xa6,
  0xfd, 0x9d, 0xfa, 0x97, 0x43, 0xe7, 0xd2, 0x4d, 0xea, 0x17, 0xb1, 0xb3,
  0xc0, 0x7a, 0xff, 0xdc, 0x6c, 0xb5, 0x2d, 0x7f, 0xdf, 0xdd, 0x44, 0x81,
  0x77, 0xf9, 0x9c, 0xb1, 0xca, 0xb9, 0x6e, 0x1f, 0xdf, 0x87, 0xb8, 0x84,
  0x8e, 0xc5, 0xc6, 0xa0, 0xb9, 0x53, 0x4a, 0x15, 0xc8, 0xf0, 0xb3, 0x47,
  0xb2, 0x5a, 0x14, 0x00, 0xf0, 0x5d, 0xc1, 0xa8, 0xe9, 0x15, 0xa4, 0x06,
  0x29, 0xe5, 0x05, 0x51, 0x9e, 0xa9, 0x0a, 0x69, 0x7f, 0x47, 0x88, 0x55,
  0x96, 0xe6, 0xa4, 0xf3, 0xf6, 0xdf, 0x41, 0x61, 0x84, 0xee, 0x3e, 0xb0,
  0x37, 0xe2, 0xe5, 0x08, 0x00, 0x35, 0x50, 0xa4, 0xd8, 0x84, 0x80, 0x0b,
  0x22, 0x38, 0x4e, 0x10, 0x4a, 0x8d, 0x04, 0x9a, 0xbf, 0x31, 0x98, 0x0b,
  0x02, 0x22, 0xd4, 0xf2, 0xb1, 0x9d, 0x7b, 0xd2, 0x56, 0x76, 0xa3, 0x26,
  0xac, 0xab, 0xa3, 0xe8, 0x37, 0x22, 0xf3, 0x9a, 0xd9, 0x0e, 0xda, 0x09,
  0xf4, 0xdb, 0x69, 0xeb, 0xcd, 0xac, 0xd4, 0x51, 0x01, 0x9e, 0x0f, 0xcf,
  0xb4, 0x85, 0x14, 0x77, 0x7c, 0xca, 0x91, 0x40, 0xc8, 0x61, 0x16, 0x70,
  0xa1, 0xfa, 0x02, 0xcc, 0x18, 0xe6, 0x75, 0xe1, 0x85, 0xb5, 0xd4, 0xe8,
  0xc6, 0x7c, 0x97, 0x37, 0x86, 0xab, 0xf8, 0xb6, 0xa1, 0x1b, 0xf3, 0xa3,
  0x37, 0xd5, 0xe1, 0xe9, 0xbe, 0x1b, 0xc7, 0x03, 0x86, 0xeb, 0xe7, 0xad,
  0x89, 0x22, 0x4c, 0xc8, 0x89, 0x83, 0x77, 0x2d, 0x63, 0xdf, 0x1c, 0x67,
  0x1e, 0x91, 0x23, 0x91, 0xae, 0x02, 0x00, 0xe4, 0x86, 0xc2, 0x18, 0x37,
  0x00, 0x41, 0x34, 0x80, 0x38, 0x22, 0xf9, 0xf2, 0xe0, 0xf2, 0xf1, 0xd5,
  0x52, 0x15, 0x50, 0x4e, 0x33, 0xa3, 0x94, 0x0f, 0xaf, 0x2c, 0xd9, 0xf5,
  0x82, 0x48, 0xb5, 0x6f, 0xd8, 0x79, 0xa6, 0xf9, 0xea, 0x72, 0xbd, 0x13,
  0xc9, 0x35, 0x7f, 0x45, 0x38, 0x7f, 0x6e, 0x39, 0x29, 0x06, 0xca, 0x99,
  0x98, 0xa6, 0xad, 0x45, 0x03, 0xe2, 0x30, 0x10, 0x11, 0x42, 0xf8, 0x13,
  0x00, 0x17, 0x00, 0xc4, 0x2c, 0x10, 0x25, 0x04, 0xf6, 0x37, 0x41, 0x57,
  0x8c, 0x8c, 0x92, 0xb0, 0x00, 0x8e, 0x9f, 0x47, 0x4e, 0x60, 0xad, 0x0c,
  0x40, 0x7c, 0x24, 0x54, 0xd7, 0x80, 0x0d, 0x00, 0xa2, 0x58, 0x15, 0x3d,
  0x81, 0x16, 0x68, 0x08, 0xfc, 0x9a, 0x4f, 0x22, 0x41, 0x05, 0x04, 0x94,
  0xa0, 0x8f, 0xbb, 0xc6, 0x31, 0xe5, 0x4a, 0x81, 0x02, 0xc4, 0x4a, 0x76,
  0xea, 0x48, 0xdd, 0xf6, 0xef, 0x14, 0x0b, 0x57, 0x11, 0x01, 0xc0, 0x23,
  0xa5, 0x7c, 0x4f, 0xd9, 0x5a, 0xee, 0x3f, 0x9f, 0x44, 0xc6, 0x8d, 0xcd,
  0x9c, 0xda, 0xf6, 0xb2, 0x39, 0xc3, 0xf3, 0xe5, 0x12, 0x62, 0x1a, 0x70,
  0x05, 0xf8, 0x57, 0x1a, 0x53, 0x01, 0x02, 0x70, 0x96, 0x46, 0x07, 0xc1,
  0x80, 0x43, 0x00, 0x3a, 0x58, 0xcb, 0x12, 0xbc, 0x87, 0x09, 0xf2, 0x6b,
  0x80, 0x67, 0x47, 0x47, 0xc2, 0xd8, 0x0b, 0x9b, 0x5f, 0xf7, 0x3a, 0xa7,
  0xea, 0x92, 0x37, 0x6f, 0xef, 0x67, 0x18, 0x1b, 0xa7, 0x0b, 0xf8, 0x02,
  0xfe, 0xca, 0x00, 0x70, 0xf6, 0x60, 0x4e, 0x9d, 0x08, 0x70, 0x03, 0x0a,
  0x1a, 0xa4, 0x0f, 0x6a, 0xe0, 0x1c, 0x04, 0x38, 0x4a, 0x30, 0x23, 0x3c,
  0xf6, 0x16, 0xb0, 0x36, 0xfc, 0xff, 0xff, 0xff, 0xff, 0xff, 0xff, 0xff,
  0x6c, 0x02, 0x00, 0x00, 0x00, 0x7e, 0xce, 0x69, 0x5d, 0x25, 0x5b, 0xfe,
  0xff, 0xff, 0xff, 0x7e, 0xce, 0x69, 0x5d, 0x25, 0xad, 0x05, 0x00, 0x00,
  0x00, 0x7e, 0xce, 0x69, 0x5d, 0x25, 0x28, 0xff, 0xff, 0xff, 0xff, 0x7e,
  0xce, 0x69, 0x5d, 0x25, 0xd6, 0xff, 0xff, 0xff, 0xff, 0x7e, 0xce, 0x69,
  0x5d, 0x25, 0x0a, 0x01, 0x00, 0x00, 0x00, 0x7e, 0xce, 0x69, 0x5d, 0x25,
  0xce, 0x00, 0x00, 0x00, 0x00, 0x7e, 0xce, 0x69, 0x5d, 0x25, 0x83, 0x03,
  0x00, 0x00, 0x00, 0x7e, 0xce, 0x69, 0x5d, 0x25, 0x91, 0x00, 0x00, 0x00,
  0x00, 0x7e, 0xce, 0x69, 0x5d, 0x25, 0x4b, 0x05, 0x00, 0x00, 0x00, 0x7e,
  0xce, 0x69, 0x5d, 0x25, 0x00, 0x00, 0x00, 0x00, 0x00, 0x00, 0x00, 0x00,
  0x00, 0x00, 0x00, 0x00, 0x08, 0x11, 0x50, 0xf1, 0x29, 0x18, 0xc4, 0xb0,
  0x20, 0xc5, 0x91, 0x28, 0xcd, 0xc3, 0x38, 0x14, 0x14, 0x49, 0x19, 0x76,
  0x4d, 0x95, 0xc7, 0x85, 0x9d, 0xb5, 0x69, 0x63, 0xf9, 0x8f, 0x00, 0xf0,
  0x73, 0x7e, 0xda, 0x8f, 0x00, 0x03, 0x04, 0x2c, 0xa4, 0x1b, 0x02, 0xc0,
  0x44, 0x4f, 0xa9, 0xa6, 0xa6, 0x8b, 0x7f, 0xfe, 0x98, 0x04, 0x00, 0x18,
  0x13, 0x94, 0x7c, 0x77, 0x02, 0x80, 0xd9, 0x15, 0x56, 0xd9, 0xa8, 0x28,
  0x37, 0xfc, 0xb3, 0x2e, 0xa8, 0xc5, 0xf9, 0x04, 0x80, 0x0f, 0x79, 0xab,
  0x06, 0xcb, 0x7c, 0x00, 0xb0, 0xfd, 0x2e, 0x12, 0x8a, 0x1f, 0xfb, 0x1f,
  0x31, 0x56, 0xb9, 0xe4, 0x08, 0x00, 0x7e, 0xd2, 0x17, 0x3a, 0x78, 0xeb,
  0x0f, 0x86, 0xaa, 0x01, 0x80, 0xa2, 0x81, 0x45, 0x04, 0xf9, 0x00, 0x8e,
  0xc6, 0x20, 0x00, 0x64, 0xa6, 0x00, 0x01, 0x44, 0x8f, 0x01, 0xc0, 0xa7,
  0x00, 0xf3, 0x78, 0x87, 0x6e, 0xa1, 0x9c, 0x00, 0x80, 0xf0, 0xf8, 0x72,
  0xfa, 0xd7, 0x03, 0x00, 0x77, 0x0c, 0xb8, 0xc3, 0xed, 0xa7, 0xeb, 0x1f,
  0x7b, 0x2f, 0x69, 0x9e, 0x48, 0x0e, 0x00, 0x9c, 0x2c, 0x23, 0xfd, 0xfd,
  0xef, 0xed, 0x69, 0xa7, 0xe3, 0xc6, 0x1e, 0x08, 0x00, 0x26, 0x43, 0x30,
  0xf6, 0x09, 0xb0, 0xab, 0x5a, 0x80, 0x8d, 0x3f, 0x00, 0xfc, 0x1f, 0x54,
  0xe4, 0x82, 0xa0, 0x73, 0x2b, 0xc5, 0x94, 0x3b, 0x00, 0x04, 0x56, 0xa3,
  0xa4, 0xb7, 0xaf, 0x2d, 0x02, 0x64, 0xac, 0x08, 0x9a, 0x30, 0xcf, 0xcf,
  0x20, 0x00, 0xbc, 0x5a, 0xff, 0x96, 0x9e, 0x63, 0x7c, 0x2e, 0x86, 0x4d,
  0x48, 0xf1, 0x06, 0x40, 0xc4, 0x29, 0x42, 0xce, 0x05, 0x00, 0x9c, 0x10,
  0x58, 0x7c, 0x74, 0x14, 0xf3, 0x4e, 0x10, 0x00, 0x0e, 0x62, 0x9b, 0xd3,
  0x4f, 0xdc, 0xfd, 0x03, 0xc0, 0xee, 0x81, 0xd8, 0xb0, 0x20, 0xde, 0x34,
  0xb7, 0xc7, 0xd8, 0x38, 0x80, 0x7f, 0x29, 0x13, 0x37, 0x9d, 0xae, 0x33,
  0xf6, 0xaf, 0x28, 0xfa, 0xec, 0xf0, 0xff, 0xff, 0x3d, 0x82, 0x30, 0x50,
  0xff, 0x7f, 0xe0, 0x48, 0xff, 0xff, 0x1f, 0x00, 0x60, 0xfc, 0xe6, 0xfe,
  0xeb, 0xff, 0xbf, 0x99, 0x0b, 0xa2, 0xcf, 0xff, 0xaf, 0x55, 0x9d, 0xff,
  0xff, 0x7f, 0x00, 0x98, 0xfe, 0xd9, 0xfd, 0x0e, 0xff, 0xb1, 0x09, 0xc0,
  0xe9, 0xcc, 0xdd, 0xff, 0x9f, 0xa5, 0x91, 0x9e, 0xc9, 0xff, 0x93, 0x75,
  0x78, 0xda, 0xff, 0x3f, 0xc0, 0x9f, 0x03, 0x3c, 0xfe, 0x30, 0xff, 0xff,
  0x7f, 0x8a, 0xb4, 0xe4, 0xff, 0xff, 0x5f, 0xa3, 0x8a, 0x4b, 0xf3, 0xff,
  0xc3, 0xda, 0x64, 0xff, 0x00, 0x00, 0xb7, 0xbd, 0x7f, 0xd0, 0x01, 0x60,
  0x3d, 0xa3, 0xbf, 0xf0, 0xfb, 0xe5, 0x01, 0x85, 0x78, 0x20, 0x00, 0x41,
  0x96, 0xdc, 0x16, 0x70, 0x07, 0x00, 0x3b, 0x43, 0x9d, 0x21, 0xcc, 0x84,
  0x8d, 0xfc, 0x1c, 0x92, 0x0a, 0x1b, 0x73, 0x1b, 0x00, 0x8c, 0x92, 0x5b,
  0xb2, 0xdd, 0xe3, 0x01, 0xc8, 0x63, 0xe4, 0x32, 0x03, 0xdf, 0x7f, 0x8e,
  0xff, 0xe0, 0xc3, 0x74, 0x8a, 0xcc, 0x01, 0x80, 0x93, 0x88, 0xc0, 0x7c,
  0x0f, 0x40, 0x7e, 0xa8, 0xa5, 0x2f, 0xfa, 0x1f, 0x20, 0x01, 0x27, 0x21,
  0x04, 0x02, 0x8c, 0xa0, 0xdd, 0x51, 0x9d, 0xc7, 0xef, 0x7d, 0x0d, 0x1f,
  0x01, 0xe0, 0x11, 0xf0, 0x2a, 0xd6, 0xd9, 0xe8, 0x93, 0x24, 0xac, 0x29,
  0x0e, 0x04, 0x40, 0xfa, 0xa6, 0x67, 0x74, 0x83, 0x00, 0x80, 0x0c, 0x50,
  0x5a, 0x61, 0x58, 0xe9, 0x9c, 0x57, 0x00, 0xdc, 0x0c, 0xb4, 0x55, 0x7e,
  0x55, 0x03, 0x30, 0x03, 0xc1, 0x7b, 0xe3, 0x88, 0x59, 0xc1, 0xe1, 0x18,
  0x53, 0x22, 0x16, 0x00, 0xb2, 0x89, 0xa8, 0xff, 0xef, 0xc4, 0x84, 0x01,
  0x00, 0x24, 0x24, 0xfa, 0x27, 0x13, 0xfa, 0xf1, 0xe1, 0x1a, 0x00, 0xee,
  0x35, 0x97, 0xe8, 0x80, 0xb3, 0xad, 0x26, 0x95, 0x42, 0x5b, 0x0f, 0x04,
  0xef, 0xcb, 0x1d, 0xc6, 0x08, 0xe2, 0xe7, 0x7e, 0x72, 0x03, 0x40, 0x00,
  0xa0, 0xb8, 0x25, 0x62, 0x01, 0x10, 0x60, 0x54, 0x0b, 0x32, 0x53, 0x0e,
  0x25, 0xea, 0xd5, 0x0e, 0xfe, 0x4a, 0xb9, 0x0f, 0x00, 0xa8, 0x8e, 0xd2,
  0xdf, 0x62, 0xef, 0xb7, 0x54, 0xe0, 0x06, 0x81, 0x1f, 0x6b, 0x90, 0x9f,
  0xa4, 0x20, 0x34, 0x7e, 0xaf, 0xab, 0x7c, 0xe0, 0x7f, 0xb1, 0x96, 0x83,
  0xb8, 0x6f, 0x0e, 0x9a, 0xfc, 0xff, 0xfd, 0xff, 0xe6, 0x8b, 0x11, 0x0a,
  0x1f, 0xff, 0xff, 0x00, 0x22, 0x04, 0xf0, 0xc7, 0x80, 0xff, 0x0f, 0x36,
  0x6f, 0x33, 0x4b, 0xbb, 0xff, 0xff, 0x49, 0x27, 0x85, 0x1c, 0xc1, 0x00,
  0xe5, 0xff, 0xff, 0x01, 0x00, 0x7a, 0xe0, 0xff, 0xf7, 0xff, 0xef, 0x50,
  0xcf, 0x51, 0xaf, 0xfc, 0xff, 0xff, 0x03, 0x80, 0x0e, 0xdd, 0x87, 0x81,
  0x7f, 0xef, 0x9c, 0x78, 0x48, 0x70, 0xf3, 0xff, 0x7b, 0x4d, 0x22, 0x54,
  0x23, 0xff, 0xff, 0xff, 0x5f, 0xe0, 0x04, 0x00, 0xa0, 0x81, 0xe5, 0xce,
  0x43, 0x20, 0xf6, 0x78, 0x36, 0x09, 0x08, 0x60, 0x40, 0x64, 0xe6, 0xaa,
  0x66, 0x07, 0x13, 0x00, 0xa0, 0x2c, 0x1f, 0xe0, 0x47, 0x40, 0x4b, 0x79,
  0x18, 0x01, 0xf4, 0x2b, 0x04, 0x95, 0xb8, 0x49, 0x5b, 0x19, 0x12, 0x90,
  0xb4, 0x02, 0xc1, 0x35, 0x92, 0x74, 0xe4, 0xd0, 0xac, 0xd3, 0x78, 0x46,
  0x19, 0x00, 0x30, 0xb7, 0x8f, 0x46, 0xfb, 0x76, 0xe2, 0xb0, 0x28, 0x00,
  0x00, 0x58, 0x55, 0x24, 0x12, 0x61, 0x01, 0x00, 0x14, 0x80, 0x4b, 0x84,
  0x0e, 0xfb, 0xdd, 0xaf, 0x38, 0x02, 0xc4, 0x00, 0x70, 0x53, 0x44, 0x39,
  0x43, 0x3d, 0xd7, 0x5c, 0x02, 0x00, 0x80, 0x02, 0x69, 0x65, 0x1d, 0x70,
  0xfd, 0x68, 0x00, 0xa0, 0xed, 0x7c, 0x8b, 0x31, 0x88, 0x38, 0xef, 0xba,
  0xc7, 0x1a, 0xf9, 0x45, 0x62, 0xaf, 0x80, 0x0b, 0x01, 0x66, 0xbb, 0xbe,
  0x6c, 0x88, 0x8c, 0x23, 0x00, 0xa0, 0x83, 0x9b, 0xc6, 0xf0, 0xe1, 0x00,
  0xa0, 0x46, 0xae, 0x91, 0x40, 0x23, 0x20, 0x00, 0x38, 0x0a, 0xc1, 0x45,
  0xe3, 0xbe, 0x2c, 0xd1, 0x07, 0x00, 0xbc, 0x34, 0xb4, 0x03, 0xf6, 0x02,
  0x3b, 0x64, 0x53, 0x08, 0xa8, 0xaf, 0xa4, 0x1b, 0x86, 0x01, 0x1f, 0x1c,
  0x00, 0x40, 0xc9, 0xcc, 0xe5, 0x56, 0xde, 0x41, 0xe8, 0x52, 0x2f, 0x60,
  0xb4, 0x8a, 0x50, 0x02, 0x00, 0x09, 0x02, 0x4f, 0xac, 0x34, 0x88, 0x07,
  0x28, 0x80, 0xe0, 0x92, 0x1f, 0x52, 0x0c, 0x09, 0x05, 0x02, 0xb7, 0x1d,
  0x00, 0xb8, 0x0a, 0x35, 0x8e, 0x14, 0xf3, 0xce, 0x0c, 0x7b, 0x00, 0x50,
  0xb1, 0x87, 0xcd, 0xc5, 0x46, 0xf8, 0xb6, 0x42, 0x02, 0x0d, 0x24, 0x30,
  0x8e, 0x2c, 0x00, 0xf0, 0x83, 0x94, 0x1b, 0xee, 0xf6, 0xc6, 0xf1, 0xff,
  0x55, 0x20, 0x07, 0x4e, 0xb4, 0xf5, 0xff, 0x65, 0x3a, 0x23, 0x5f, 0x04,
  0xd1, 0xff, 0xff, 0x3f, 0x00, 0x1c, 0x19, 0xfc, 0x77, 0xaa, 0xff, 0xff,
  0xcf, 0xb3, 0xa2, 0x91, 0x51, 0x20, 0xff, 0x0f, 0xe6, 0xde, 0xd3, 0xff,
  0xff, 0x03, 0x88, 0x2e, 0xc0, 0x9f, 0x09, 0xfe, 0xff, 0x36, 0x95, 0x27,
  0x77, 0xeb, 0xe2, 0xff, 0x93, 0x6e, 0x80, 0xaa, 0xe4, 0xca, 0xff, 0xff,
  0x0b, 0x20, 0xe0, 0xe2, 0xc7, 0xec, 0xff, 0xbf, 0xb2, 0x94, 0x5d, 0xe8,
  0xf1, 0xff, 0xa5, 0x97, 0x5c, 0xc0, 0x73, 0xff, 0xff, 0xff, 0x01, 0xd0,
  0x08, 0x00, 0xb0, 0xec, 0x5e, 0xed, 0xcb, 0xc1, 0xab, 0x24, 0x30, 0x10,
  0x00, 0x00, 0x86, 0xd6, 0xa2, 0x5f, 0x1e, 0x44, 0x00, 0x60, 0x4b, 0xab,
  0x3d, 0xe9, 0x1c, 0x45, 0x48, 0x07, 0x03, 0xc0, 0xb4, 0xcc, 0x0e, 0xd1,
  0xf2, 0x02, 0x13, 0x91, 0x9d, 0x8f, 0x9e, 0xe9, 0x32, 0xca, 0x01, 0x80,
  0x44, 0x56, 0x60, 0xe4, 0x01, 0x66, 0x08, 0x6f, 0x27, 0x00, 0x78, 0x97,
  0x43, 0x84, 0x4a, 0xe2, 0x0c, 0x10, 0xdc, 0x61, 0x48, 0x21, 0x00, 0x00,
  0x35, 0x35, 0xb4, 0xbb, 0xa7, 0xf9, 0x7d, 0xa0, 0x82, 0x26, 0x22, 0xac,
  0x85, 0x54, 0xc0, 0x01, 0x42, 0xe1, 0x29, 0x00, 0xb8, 0x01, 0x0d, 0x74,
  0x02, 0xbb, 0x5c, 0x24, 0x07, 0xc0, 0xcb, 0x27, 0xe4, 0xc0, 0x81, 0x4e,
  0xec, 0x85, 0x0b, 0xe1, 0xd3, 0x5c, 0x08, 0x86, 0x00, 0xf5, 0xd5, 0xaa,
  0x88, 0x61, 0x40, 0x05, 0x80, 0x7c, 0x2c, 0xc6, 0x3d, 0x0a, 0xee, 0xa3,
  0x56, 0x00, 0x00, 0x30, 0x8b, 0x2d, 0x2c, 0x8b, 0xda, 0x8b, 0x72, 0x00,
  0xc8, 0x23, 0x48, 0x03, 0x00, 0x08, 0x50, 0x10, 0xc7, 0xdd, 0x37, 0xf2,
  0xcb, 0x03, 0xc2, 0x11, 0x00, 0xa0, 0x83, 0x72, 0x16, 0x24, 0x50, 0xe8,
  0x08, 0x40, 0x97, 0xf8, 0xfe, 0x03, 0x10, 0x85, 0xa3, 0x09, 0x07, 0x80,
  0xbe, 0xed, 0x21, 0x9e, 0x67, 0x63, 0x40, 0xfd, 0x5a, 0x54, 0x1b, 0xb6,
  0x57, 0x03, 0x00, 0xbb, 0x5b, 0xc4, 0x7d, 0x48, 0xb8, 0x05, 0x08, 0x03,
  0x2e, 0xe0, 0x80, 0x0a, 0x00, 0x27, 0x19, 0x90, 0x50, 0x02, 0xc0, 0xd9,
  0x82, 0x7f, 0x7d, 0x09, 0x00, 0xfa, 0x45, 0xc3, 0x10, 0xe0, 0x78, 0xb3,
  0xaf, 0x59, 0xde, 0x1c, 0xb7, 0x09, 0x01, 0x60, 0xb7, 0x84, 0xc2, 0xf8,
  0x4b, 0x08, 0xf0, 0x3f, 0x91, 0x9b, 0x48, 0x45, 0xe3, 0xd0, 0xff, 0xbf,
  0x3b, 0xde, 0x8c, 0x56, 0xb8, 0x49, 0xfb, 0x7f, 0x2f, 0xbc, 0x70, 0x62,
  0x11, 0xff, 0x1f, 0x2e, 0xc2, 0x00, 0x8e, 0xfe, 0x0f, 0x00, 0x60, 0x04,
  0xff, 0x7f, 0xf4, 0xc8, 0xd9, 0x11, 0x01, 0xf1, 0xff, 0xff, 0xff, 0xff,
  0x00, 0x30, 0x4d, 0xaf, 0x97, 0xc0, 0x7f, 0x3f, 0xc4, 0x8c, 0x07, 0x24,
  0xbe, 0xfd, 0xff, 0x7e, 0x31, 0x42, 0x1c, 0x11, 0xfe, 0xbf, 0xe8, 0x21,
  0xbc, 0xff, 0x7f, 0x80, 0xe3, 0x07, 0xf8, 0xd5, 0x61, 0xfe, 0xff, 0xea,
  0x83, 0x43, 0xc4, 0xf4, 0xff, 0x79, 0x94, 0x10, 0x92, 0x40, 0xfe, 0xff,
  0xff, 0x01, 0x18, 0x00, 0x28, 0x8c, 0x02, 0x80, 0xd5, 0xab, 0x0c, 0x3c,
  0xfa, 0x10, 0xba, 0x00, 0x10, 0x00, 0xec, 0xa0, 0xd0, 0x34, 0xfc, 0x3f,
  0x04, 0x0a, 0x00, 0x0f, 0x51, 0x99, 0x21, 0x96, 0x02, 0xc4, 0x87, 0xcd,
  0x72, 0x10, 0xa5, 0x67, 0x16, 0xb4, 0x00, 0xf4, 0x9e, 0x10, 0x75, 0x5c,
  0xdb, 0x58, 0xd4, 0x07, 0x00, 0x00, 0x44, 0xcf, 0x67, 0x47, 0xc2, 0x3a,
  0x4c, 0x00, 0x68, 0x23, 0x72, 0x47, 0xec, 0x8d, 0x62, 0x5a, 0x08, 0x00,
  0x00, 0x89, 0x15, 0x10, 0x25, 0x10, 0x00, 0x20, 0x2d, 0x0e, 0x58, 0x04,
  0xe9, 0x16, 0x02, 0x00, 0x28, 0x89, 0x01, 0x08, 0x73, 0x81, 0xcd, 0x15,
  0xca, 0xbf, 0x04, 0x00, 0xe0, 0x47, 0xc0, 0x06, 0x44, 0x71, 0x88, 0x00,
  0xe8, 0xfb, 0x1c, 0x3f, 0x14, 0x02, 0x66, 0x76, 0x80, 0xf4, 0x03, 0xc0,
  0xd7, 0xf1, 0x97, 0x0d, 0x00, 0xb2, 0x9c, 0x61, 0x56, 0x02, 0x10, 0x37,
  0xbd, 0xb0, 0xe5, 0x0f, 0xb6, 0xde, 0x12, 0x3c, 0x64, 0x80, 0x40, 0x19,
  0xaf, 0x60, 0x0c, 0x44, 0xf4, 0x12, 0x41, 0x9e, 0xe7, 0x04, 0x94, 0xb6,
  0x07, 0x33, 0x19, 0x20, 0x40, 0x3c, 0xbc, 0xe4, 0xfc, 0xf6, 0x9c, 0xd2,
  0xcd, 0x25, 0xe2, 0xd0, 0x4c, 0x80, 0x07, 0x00, 0x42, 0xd5, 0x32, 0xb6,
  0xdc, 0x87, 0x30, 0x7a, 0x00, 0xb4, 0xce, 0x81, 0xe0, 0x12, 0x2c, 0xed,
  0x04, 0x00, 0x00, 0xa0, 0x25, 0x42, 0x52, 0x9c, 0x27, 0x62, 0x00, 0x68,
  0x57, 0x0d, 0x58, 0x47, 0x2c, 0xb5, 0xa2, 0xb0, 0x03, 0x00, 0xa8, 0x41,
  0x39, 0xe3, 0xbc, 0xfb, 0xb3, 0x18, 0xee, 0x81, 0x34, 0xb0, 0x09, 0xa8,
  0xf8, 0x01, 0x02, 0xb4, 0x2b, 0x2d, 0x09, 0xa0, 0x65, 0xce, 0x94, 0xe1,
  0xbf, 0x07, 0x2b, 0xc5, 0x54, 0x1d, 0x1e, 0x8f, 0xff, 0xb7, 0x46, 0x56,
  0x7a, 0x65, 0xf8, 0xff, 0x85, 0xa1, 0x33, 0xde, 0x49, 0xfc, 0xff, 0x1f,
  0x06, 0xe0, 0xa1, 0xf5, 0xff, 0xf7, 0xff, 0x27, 0x04, 0x48, 0x1e, 0x3a,
  0xff, 0xff, 0x3f, 0x48, 0x1a, 0x00, 0x7c, 0x5c, 0xf9, 0xff, 0x6d, 0x1b,
  0x85, 0xf4, 0x87, 0xff, 0x97, 0x11, 0x3c, 0x05, 0x51, 0xfe, 0xff, 0xff,
  0x07, 0x00, 0x44, 0xdf, 0x05, 0x06, 0xff, 0x46, 0xd9, 0xfe, 0x66, 0xc5,
  0xfe, 0xff, 0x35, 0xa9, 0x3a, 0xbe, 0x2b, 0x19, 0xfc, 0xff, 0xff, 0x3f,
  0xc0, 0x7e, 0x00, 0x40, 0x55, 0x80, 0x2f, 0x0c, 0x54, 0x25, 0xe3, 0x82,
  0x46, 0x00, 0xc0, 0xbf, 0x02, 0x20, 0x63, 0x1e, 0x50, 0x40, 0x04, 0x80,
  0x13, 0x21, 0x6a, 0xf9, 0x43, 0xc0, 0x17, 0x00, 0xea, 0x11, 0x84, 0x51,
  0xc7, 0x08, 0xc2, 0xc2, 0x40, 0x8e, 0xa7, 0x1d, 0xcc, 0x30, 0x10, 0x60,
  0x68, 0x31, 0x25, 0x34, 0x09, 0x1c, 0x13, 0xa3, 0x45, 0x5b, 0x00, 0xf8,
  0x8b, 0x2f, 0xf1, 0x8d, 0xa2, 0x5a, 0x08, 0x01, 0x80, 0x1b, 0x0a, 0xca,
  0x09, 0xfa, 0x5b, 0xb5, 0xe4, 0x9a, 0x77, 0x9a, 0xfa, 0x02, 0x00, 0x00,
  0xe0, 0xc4, 0xa6, 0x8c, 0x26, 0x96, 0x03, 0x04, 0xdd, 0x0a, 0x21, 0x18,
  0xb1, 0x4e, 0x7d, 0xba, 0x15, 0x01, 0x00, 0xfc, 0x99, 0x16, 0xe1, 0xb6,
  0xe7, 0x1a, 0x3c, 0x8b, 0xac, 0x20, 0x22, 0xda, 0x0c, 0x12, 0x00, 0xb0,
  0x0f, 0x68, 0xf0, 0x9c, 0x24, 0x82, 0x00, 0xc0, 0x22, 0x06, 0x74, 0x1c,
  0x15, 0x67, 0x84, 0x02, 0x00, 0x9c, 0x79, 0xd1, 0x45, 0x00, 0x35, 0x0e,
  0x30, 0x00, 0x80, 0xec, 0x6c, 0x2e, 0x0b, 0x00, 0x07, 0x57, 0xfe, 0x06,
  0x08, 0x41, 0xc2, 0x85, 0x97, 0xb6, 0x81, 0x01, 0x00, 0x0b, 0x27, 0xc8,
  0x52, 0x0c, 0x0a, 0x00, 0xfa, 0x98, 0xc2, 0xae, 0xfc, 0x29, 0x05, 0x78,
  0x06, 0x80, 0xab, 0xdc, 0x7c, 0xd8, 0x13, 0x3a, 0xca, 0xc7, 0x85, 0x0c,
  0x23, 0x01, 0x8e, 0x84, 0x1f, 0x00, 0xd0, 0x06, 0xa1, 0x42, 0x40, 0xaf,
  0x00, 0x00, 0x00, 0xac, 0x14, 0xce, 0x07, 0x63, 0x32, 0x18, 0x00, 0xf8,
  0x07, 0x2b, 0x89, 0x43, 0x46, 0xc0, 0x38, 0xf4, 0xd1, 0x5e, 0xd5, 0x2e,
  0x14, 0x12, 0xf4, 0x3d, 0x14, 0x00, 0x7c, 0xbb, 0xee, 0x63, 0xe2, 0xc0,
  0xb7, 0x45, 0x1b, 0xb7, 0xbb, 0x02, 0x1d, 0x00, 0x38, 0x35, 0xd9, 0xd5,
  0x4b, 0x17, 0x0e, 0xf9, 0xff, 0x7e, 0x4d, 0x9a, 0x24, 0xd2, 0x12, 0xff,
  0x6f, 0x6e, 0x82, 0x5c, 0x1a, 0x27, 0xfe, 0xff, 0xff, 0x01, 0xa0, 0x99,
  0xe0, 0x7f, 0xa5, 0xbc, 0xff, 0xb7, 0x6c, 0x41, 0xb4, 0x72, 0x72, 0xfe,
  0x5f, 0x80, 0x2e, 0x5e, 0x6b, 0xa9, 0xfe, 0xff, 0x03, 0xa8, 0x14, 0xc0,
  0x7b, 0xec, 0xfd, 0xff, 0xbb, 0xe8, 0x20, 0x76, 0xe3, 0xf2, 0xff, 0x0b,
  0xec, 0xda, 0xb8, 0xff, 0xff, 0x0f, 0xe7, 0x0f, 0x10, 0xad, 0x83, 0xe9,
  0xff, 0x77, 0x4d, 0x2c, 0xa6, 0xff, 0x0f, 0x10, 0x88, 0x12, 0x07, 0x95,
  0xff, 0xff, 0xff, 0x00, 0x00, 0x0c, 0x13, 0x91, 0x54, 0x67, 0xe0, 0xd1,
  0xa0, 0x0e, 0x3d, 0x64, 0x03, 0x28, 0x00, 0xe6, 0x3d, 0x90, 0x61, 0xeb,
  0x05, 0x68, 0x00, 0x30, 0x41, 0xcc, 0x31, 0x55, 0x9d, 0x01, 0x3c, 0x13,
  0x00, 0xc0, 0x11, 0x7e, 0xee, 0xe8, 0x4a, 0x6a, 0xa4, 0x28, 0x00, 0x7c,
  0x61, 0x06, 0x79, 0xcb, 0x19, 0x07, 0xa0, 0xdf, 0x31, 0x91, 0x08, 0x2d,
  0x03, 0x00, 0xd9, 0x61, 0xb6, 0xd1, 0x8b, 0xc1, 0x70, 0x32, 0x00, 0x00,
  0x00, 0xb6, 0x9c, 0x5c, 0x44, 0xe8, 0x2a, 0x83, 0x00, 0x40, 0x9c, 0xb0,
  0x81, 0xf7, 0x02, 0x51, 0x21, 0x91, 0x2c, 0x01, 0x00, 0x3f, 0xe0, 0x7b,
  0x57, 0xa1, 0xda, 0x56, 0x04, 0x0a, 0x00, 0xd8, 0xcf, 0x7e, 0x37, 0xc3,
  0x28, 0xd8, 0x01, 0x60, 0xad, 0x71, 0x08, 0xe1, 0x35, 0x86, 0x25, 0xcc,
  0xda, 0xcd, 0xe6, 0x84, 0x7e, 0xb8, 0xc5, 0x02, 0x40, 0x7f, 0xcb, 0x05,
  0x3e, 0xa1, 0x84, 0x10, 0x00, 0x80, 0x92, 0x42, 0x80, 0x0a, 0x4e, 0x14,
  0x00, 0xe2, 0x10, 0x09, 0x56, 0x44, 0x08, 0xa4, 0xaa, 0x09, 0xfd, 0x6b,
  0xa6, 0xad, 0xcc, 0x4b, 0x3f, 0x40, 0x00, 0xc0, 0x12, 0xd1, 0x9e, 0x46,
  0x95, 0x22, 0x00, 0xfe, 0x4d, 0xb0, 0xa2, 0x6e, 0x98, 0x54, 0xc1, 0x01,
  0x00, 0x80, 0x5a, 0x59, 0x2f, 0x81, 0x67, 0xd8, 0x00, 0xd0, 0x01, 0x30,
  0x12, 0x88, 0x56, 0x44, 0xa5, 0x01, 0xe0, 0x97, 0x15, 0x00, 0x16, 0x08,
  0x00, 0x88, 0x50, 0xa8, 0x02, 0xb4, 0x44, 0x44, 0x43, 0x4a, 0xfe, 0x58,
  0x00, 0xa0, 0x19, 0xde, 0x08, 0x00, 0xde, 0x13, 0x53, 0x00, 0x78, 0x11,
  0x31, 0xcb, 0x82, 0xb7, 0x05, 0x06, 0x92, 0xcb, 0x54, 0x04, 0x9f, 0x07,
  0x78, 0x13, 0xc6, 0xff, 0x3f, 0xad, 0xd7, 0x4d, 0x14, 0xfe, 0xff, 0xff,
  0x7f, 0xe4, 0xfc, 0xc4, 0xcc, 0xeb, 0xff, 0xff, 0x43, 0x31, 0x00, 0xc0,
  0x99, 0xce, 0xff, 0xb7, 0xdf, 0x98, 0xb5, 0xf5, 0x9a, 0xe8, 0xff, 0x49,
  0x09, 0x6d, 0xb6, 0xcf, 0xff, 0xff, 0xff, 0x01, 0x60, 0x62, 0x7c, 0x53,
  0xc0, 0xbf, 0xf6, 0xff, 0x43, 0x99, 0x93, 0xfd, 0x7f, 0xff, 0xf7, 0x72,
  0xe2, 0x04, 0xf6, 0xff, 0xff, 0xff, 0x00, 0x9a, 0x80, 0xf0, 0x0b, 0xdb,
  0xff, 0x5f, 0x99, 0x3b, 0xbc, 0x5c, 0xe2, 0xd2, 0xff, 0x5f, 0xfe, 0xbd,
  0xa0, 0xe4, 0x23, 0xff, 0xff, 0x0f, 0x00, 0xf0, 0x08, 0x15, 0xae, 0x01,
  0xa0, 0x03, 0x8d, 0x14, 0xf4, 0xa2, 0x44, 0x05, 0x08, 0x03, 0x4e, 0x8f,
  0x1a, 0xb6, 0x90, 0x47, 0x00, 0x00, 0xd8, 0xa1, 0x07, 0x03, 0x0d, 0x33,
  0xc0, 0x62, 0x02, 0xc0, 0x2a, 0x33, 0x66, 0x36, 0x45, 0x30, 0x7f, 0x42,
  0x11, 0x9b, 0x2e, 0x06, 0x2a, 0x45, 0x11, 0x1a, 0x00, 0xfc, 0x9a, 0xae,
  0x33, 0x0b, 0x5e, 0x47, 0x27, 0x0e, 0x40, 0xbd, 0xc5, 0xd3, 0x50, 0x91,
  0x19, 0xa5, 0xee, 0x1c, 0x5e, 0x04, 0xa5, 0x71, 0x00, 0x00, 0xd0, 0x58,
  0x3d, 0x6c, 0x97, 0x30, 0x62, 0x02, 0x80, 0x35, 0xc2, 0x88, 0x33, 0xcc,
  0x1a, 0xc2, 0x19, 0x01, 0x60, 0xb1, 0xa8, 0x0d, 0xc1, 0x1b, 0xab, 0xe0,
  0xde, 0x8e, 0xe6, 0x03, 0x73, 0xd4, 0xf8, 0x00, 0x00, 0x00, 0x60, 0x3e,
  0x1a, 0x13, 0x48, 0xc8, 0x08, 0x00, 0xfb, 0x33, 0xa0, 0x8f, 0xf9, 0x40,
  0xa7, 0xc2, 0x0a, 0x01, 0x02, 0x0f, 0xc6, 0x1d, 0x18, 0x02, 0x13, 0x20,
  0x05, 0x06, 0x5f, 0x13, 0x07, 0x51, 0xf2, 0x25, 0x70, 0x09, 0x00, 0x3b,
  0x1c, 0x84, 0x46, 0x9e, 0x47, 0x88, 0x44, 0xe9, 0x2b, 0x35, 0xcd, 0x77,
  0x5e, 0x1a, 0x82, 0xea, 0xae, 0x28, 0xc9, 0x7b, 0x7f, 0x47, 0x80, 0x63,
  0x00, 0x78, 0xad, 0x68, 0x9c, 0xf0, 0xc4, 0x07, 0x00, 0xd9, 0x67, 0x9c,
  0xb2, 0x7d, 0x5e, 0xf9, 0xb0, 0x97, 0x65, 0xdb, 0x40, 0xcd, 0x04, 0x00,
  0x10, 0xcc, 0xa9, 0xf4, 0xa9, 0x2e, 0x05, 0x03, 0xc0, 0x27, 0xb1, 0x42,
  0x29, 0x80, 0x14, 0x47, 0xfa, 0x07, 0x40, 0xda, 0x06, 0x5b, 0xd6, 0x5f,
  0xa1, 0xf6, 0xe4, 0x3d, 0xf5, 0x71, 0xc9, 0x1b, 0x50, 0x00, 0xf0, 0xda,
  0xb3, 0x79, 0x34, 0x34, 0xec, 0x88, 0xed, 0x6f, 0x83, 0xe5, 0xc1, 0x7f,
  0x62, 0x36, 0x18, 0x70, 0x60, 0xbb, 0x2f, 0xf4, 0xff, 0xf5, 0xff, 0x2f,
  0xb2, 0x12, 0xb9, 0x83, 0xff, 0xff, 0x13, 0xcc, 0x35, 0xc0, 0xd7, 0x41,
  0xca, 0xff, 0x3f, 0x78, 0x33, 0x63, 0x9a, 0xff, 0x5f, 0x82, 0x0c, 0x17,
  0xec, 0xa6, 0xff, 0xff, 0x1f, 0x00, 0x00, 0xc5, 0x9f, 0xd4, 0xfe, 0xff,
  0x2f, 0xb4, 0xd8, 0x89, 0xba, 0xf4, 0xff, 0xce, 0xc6, 0xba, 0xca, 0xff,
  0xff, 0x3f, 0x00, 0x5c, 0xe4, 0x3f, 0xac, 0xf0, 0x5f, 0x77, 0x73, 0x4a,
  0xce, 0xff, 0x5f, 0x4e, 0x1b, 0xad, 0x9b, 0xfa, 0xff, 0xff, 0xff, 0x00,
  0x42, 0x0c, 0x00, 0x0f, 0xb4, 0x6f, 0xf1, 0xa9, 0x01, 0x00, 0x40, 0x12,
  0x04, 0xb0, 0x0f, 0xc1, 0x71, 0x77, 0x1b, 0x54, 0xd0, 0x80, 0x43, 0x23,
  0x65, 0x02, 0x5e, 0xa9, 0x03, 0x91, 0x00, 0xf0, 0xb3, 0x9c, 0xfa, 0x22,
  0x0a, 0x18, 0x0d, 0x40, 0x90, 0x1c, 0x16, 0x0f, 0x46, 0x8c, 0x44, 0x80,
  0x00, 0xe0, 0x46, 0x5a, 0xef, 0xfe, 0x5d, 0x85, 0x39, 0xbe, 0x25, 0xb3,
  0x79, 0xc6, 0xce, 0x2e, 0x18, 0x24, 0x83, 0xc0, 0xa1, 0x81, 0x30, 0xa0,
  0xb1, 0x00, 0x90, 0x80, 0x74, 0xc0, 0x5b, 0x80, 0x64, 0x04, 0x06, 0x04,
  0x00, 0x47, 0x50, 0x05, 0x40, 0x40, 0x72, 0x1d, 0x20, 0x0e, 0x08, 0xdc,
  0xec, 0x7c, 0xd6, 0x7b, 0xa3, 0x5d, 0x53, 0x00, 0x78, 0x0f, 0x7f, 0xf9,
  0xf1, 0xc7, 0x14, 0xd8, 0xab, 0xa6, 0xf5, 0xf4, 0xd5, 0x18, 0x03, 0x84,
  0xf5, 0x50, 0x48, 0x2b, 0xd8, 0x06, 0x64, 0x11, 0x20, 0xbe, 0x13, 0xb7,
  0x48, 0x61, 0x03, 0x04, 0xd0, 0x43, 0x3a, 0xc6, 0x13, 0x40, 0xe1, 0x00,
  0x70, 0xdd, 0x39, 0x84, 0x20, 0x42, 0xe0, 0x25, 0x14, 0x00, 0x78, 0xdd,
  0xca, 0x38, 0x60, 0x26, 0x42, 0x02, 0xc0, 0x3b, 0x13, 0x4e, 0x18, 0xc8,
  0x56, 0x99, 0x5c, 0xad, 0x6a, 0x51, 0xa2, 0x25, 0x71, 0x10, 0x00, 0xd0,
  0x69, 0xcb, 0xe6, 0x85, 0x11, 0x11, 0x0c, 0x00, 0xe7, 0x78, 0x7b, 0x89,
  0xcd, 0x04, 0x02, 0xe0, 0xc9, 0xfa, 0xf3, 0x12, 0xb6, 0x05, 0x04, 0x98,
  0x15, 0x39, 0x44, 0xa4, 0xd1, 0x0d, 0x43, 0x36, 0x00, 0x94, 0xa3, 0xd0,
  0xc5, 0x62, 0x81, 0x88, 0x30, 0x1f, 0x00, 0x80, 0x4d, 0xd7, 0x08, 0xd7,
  0xda, 0x29, 0x49, 0x03, 0x00, 0x60, 0x9e, 0x76, 0xf0, 0x56, 0x36, 0x8c,
  0x8e, 0xff, 0x7f, 0xe7, 0xb7, 0xd8, 0x60, 0x92, 0x1b, 0xfa, 0xff, 0x3d,
  0xbd, 0xe1, 0x3b, 0xfb, 0xff, 0xff, 0x0f, 0x00, 0x01, 0x2c, 0x9a, 0x86,
  0xff, 0xad, 0x4d, 0x81, 0x4c, 0x0f, 0x6e, 0xda, 0xf2, 0xff, 0xef, 0xe6,
  0xe2, 0x33, 0x49, 0xff, 0xff, 0xff, 0x0f, 0x30, 0x06, 0x00, 0x6f, 0x00,
  0xf8, 0xff, 0xbb, 0x93, 0xf6, 0x9c, 0x2d, 0xff, 0xfa, 0xff, 0x7b, 0x33,
  0x1c, 0x55, 0x99, 0x9f, 0xd7, 0xff, 0xff, 0x03, 0x00, 0x00, 0xec, 0xff,
  0xf7, 0xff, 0x4f, 0xea, 0x96, 0xfd, 0xc8, 0x56, 0xfc, 0xff, 0xff, 0x07,
  0x80, 0x96, 0xd6, 0x02, 0x3a, 0x00, 0xac, 0x6f, 0x44, 0xcc, 0x85, 0xbc,
  0x62, 0x00, 0xc0, 0x45, 0x2c, 0x67, 0x68, 0x48, 0x21, 0x28, 0x19, 0x80,
  0x67, 0xa4, 0xb3, 0x45, 0x40, 0x19, 0xc4, 0x7a, 0xb0, 0x08, 0x80, 0xb7,
  0x81, 0xcc, 0x47, 0x00, 0x70, 0x33, 0x35, 0x88, 0x3e, 0xe0, 0x77, 0x22,
  0x00, 0xf8, 0xc9, 0xfd, 0x27, 0xcc, 0xe4, 0x60, 0xee, 0x63, 0x3d, 0x38,
  0x39, 0x2d, 0x06, 0x80, 0xed, 0xeb, 0xde, 0x2b, 0xaf, 0xf7, 0x3a, 0xba,
  0x00, 0x76, 0x95, 0xd2, 0x40, 0x9a, 0x98, 0x06, 0x40, 0x79, 0x44, 0x65,
  0x4d, 0x03, 0x00, 0xd5, 0x68, 0x10, 0x00, 0x56, 0x00, 0xd5, 0x8c, 0x6b,
  0x14, 0x01, 0x81, 0x9f, 0x1a, 0x86, 0x4e, 0x8d, 0x9b, 0x2a, 0x00, 0xf4,
  0x27, 0x6c, 0x07, 0xc8, 0xc1, 0x61, 0x02, 0x8c, 0x43, 0x25, 0x9d, 0x7c,
  0x00, 0xb8, 0xa5, 0xac, 0x66, 0x6c, 0xb0, 0x07, 0xaa, 0x5e, 0x8f, 0x61,
  0x64, 0x65, 0x31, 0x3a, 0x60, 0xd6, 0x03, 0xa0, 0x00, 0xb0, 0x59, 0x0b,
  0xc4, 0xd7, 0x92, 0x88, 0x01, 0xc0, 0xcd, 0x60, 0x44, 0x39, 0x80, 0x80,
  0x4e, 0x90, 0xb7, 0x15, 0x6b, 0x02, 0x6a, 0x26, 0x00, 0xe1, 0x5b, 0x51,
  0xed, 0xf5, 0x46, 0x60, 0xa8, 0xc3, 0x01, 0x08, 0xbf, 0xb7, 0xf2, 0x87,
  0x84, 0xb9, 0xa8, 0xcd, 0x07, 0x80, 0xbe, 0x63, 0x81, 0x3d, 0x32, 0x81,
  0xe2, 0x8f, 0xe2, 0xd4, 0x15, 0x01, 0x00, 0xe0, 0x1d, 0xb1, 0x46, 0xa0,
  0x33, 0xa4, 0x05, 0xc0, 0xdf, 0x89, 0x70, 0x26, 0xca, 0xa4, 0x71, 0x56,
  0x13, 0x00, 0xfa, 0x28, 0x00, 0x54, 0x7e, 0xed, 0x6d, 0xfd, 0x5e, 0x85,
  0xb8, 0xdd, 0x7b, 0xe6, 0x3d, 0x15, 0xa6, 0x32, 0x80, 0x00, 0xc0, 0x5e,
  0xcd, 0x4c, 0xba, 0x80, 0x01, 0x7e, 0x8f, 0xdb, 0xc3, 0xb1, 0x61, 0xc6,
  0x1c, 0x2a, 0xf4, 0xff, 0xff, 0x96, 0xc2, 0x52, 0x31, 0xe7, 0xff, 0x7f,
  0x5b, 0xd7, 0x46, 0x31, 0xf4, 0xff, 0xff, 0x01, 0x00, 0x28, 0xe2, 0x8c,
  0xf6, 0xff, 0xaf, 0x36, 0xf0, 0xe1, 0xfb, 0xb1, 0xfc, 0xbf, 0xec, 0x35,
  0xf9, 0x94, 0xd8, 0xff, 0xff, 0x3f, 0x00, 0x50, 0x39, 0xfc, 0xff, 0xe0,
  0xfb, 0xff, 0x3d, 0x4d, 0x67, 0x3e, 0xf2, 0xff, 0x59, 0x16, 0x6e, 0xde,
  0xff, 0xff, 0x87, 0x20, 0x1d, 0x80, 0x7f, 0xa4, 0xf1, 0xff, 0x47, 0x8c,
  0x90, 0x3d, 0xd8, 0xf7, 0xff, 0xa1, 0xfc, 0x0c, 0x89, 0x21, 0xe9, 0xff,
  0xff, 0x81, 0x00, 0x70, 0x60, 0x00, 0xd0, 0x07, 0xfb, 0x9a, 0xa1, 0x7d,
  0x47, 0xa3, 0xfe, 0x00, 0x0c, 0x04, 0x2e, 0x83, 0x05, 0x29, 0xc7, 0x00,
  0x00, 0xea, 0x24, 0x17, 0x88, 0x20, 0x08, 0x8d, 0x1e, 0x2c, 0x00, 0xf4,
  0xa0, 0xf7, 0xf7, 0xfe, 0xbf, 0x0a, 0xd1, 0xf0, 0x66, 0xa2, 0xa0, 0x5a,
  0x4a, 0x01, 0x60, 0x10, 0x28, 0x4f, 0x90, 0x76, 0x6d, 0x3a, 0x0a, 0x00,
  0xe0, 0xc5, 0x15, 0x73, 0x27, 0x62, 0x40, 0x20, 0x89, 0x00, 0xa0, 0xa3,
  0x23, 0x67, 0x31, 0xbb, 0x48, 0x40, 0x43, 0x00, 0x53, 0x60, 0x04, 0x88,
  0x6a, 0xd4, 0x90, 0x78, 0x42, 0x2a, 0x88, 0xb6, 0x7d, 0x69, 0x00, 0x70,
  0x22, 0xdf, 0x08, 0x43, 0x55, 0xc5, 0x78, 0x35, 0x20, 0x00, 0x6c, 0xe4,
  0xe4, 0x24, 0x34, 0xc4, 0x6f, 0x49, 0x00, 0xf0, 0x21, 0xb6, 0x8c, 0x7f,
  0x11, 0x83, 0xa3, 0x75, 0xc3, 0x90, 0xde, 0x24, 0xe2, 0x00, 0x20, 0xa8,
  0x7e, 0x6b, 0xd1, 0x1b, 0x32, 0xe8, 0x21, 0xc0, 0x33, 0x4b, 0xf3, 0x93,
  0x6e, 0x41, 0x2a, 0x58, 0x00, 0x60, 0x95, 0x45, 0x66, 0xf4, 0xb0, 0x62,
  0x70, 0x8d, 0xc3, 0x68, 0x94, 0xa4, 0x1e, 0xe4, 0x01, 0xc0, 0x52, 0xc5,
  0xa1, 0xa2, 0x04, 0x94, 0xd2, 0x02, 0x08, 0xbf, 0x8d, 0x06, 0xa2, 0x98,
  0xe3, 0x44, 0x0a, 0x02, 0xbc, 0x5f, 0x8b, 0x12, 0x10, 0x82, 0x63, 0x5d,
  0x8b, 0xa9, 0x97, 0x0e, 0x01, 0x08, 0x00, 0x4e, 0xdf, 0xc2, 0x53, 0x7e,
  0xc1, 0x15, 0x02, 0xc0, 0x6e, 0x08, 0x28, 0xc0, 0xac, 0x0e, 0x63, 0x56,
  0x64, 0x40, 0xb8, 0x00, 0x16, 0x96, 0xc0, 0x16, 0xcc, 0xf0, 0x1b, 0xa9,
  0x98, 0xba, 0xe8, 0x02, 0x20, 0x00, 0xcb, 0x91, 0x28, 0xa0, 0x02, 0x4c,
  0x07, 0xfe, 0xbb, 0x50, 0x78, 0x12, 0x69, 0x1a, 0x08, 0xe5, 0xff, 0x93,
  0x86, 0x53, 0x8b, 0xb7, 0xfd, 0xff, 0xff, 0x3f, 0x00, 0xc1, 0x00, 0xfc,
  0x26, 0xf3, 0xff, 0x7b, 0x33, 0x8a, 0x48, 0xe5, 0xcf, 0xd2, 0xff, 0xbf,
  0xa1, 0x1a, 0x5d, 0x59, 0xff, 0xff, 0x0f, 0x00, 0x80, 0x80, 0x23, 0xc1,
  0xff, 0x4f, 0x28, 0x98, 0xa1, 0xb3, 0x74, 0xf0, 0xff, 0x7b, 0x02, 0x45,
  0x59, 0x60, 0x99, 0xfe, 0xff, 0xff, 0x0f, 0x50, 0x60, 0x16, 0xff, 0xff,
  0xff, 0x9f, 0x7d, 0x57, 0x92, 0x13, 0xff, 0xff, 0xff, 0x0f, 0xe0, 0x96,
  0x00, 0xd0, 0x06, 0xe5, 0x4b, 0x82, 0x85, 0xca, 0x4a, 0x63, 0x00, 0x40,
  0x3b, 0x5d, 0x63, 0x05, 0x44, 0xe3, 0x80, 0x0b, 0x00, 0xdd, 0xbc, 0xb6,
  0x0b, 0x19, 0xb8, 0x40, 0x0c, 0x00, 0x8e, 0x56, 0x5a, 0x07, 0xdc, 0x62,
  0xb0, 0xe0, 0xee, 0x3f, 0xb1, 0x08, 0x54, 0xe6, 0x44, 0x00, 0xc0, 0xc3,
  0xc8, 0x62, 0x8c, 0x2a, 0xa2, 0x83, 0x05, 0x00, 0xde, 0xaf, 0xa3, 0xca,
  0xdb, 0xc2, 0x0b, 0xeb, 0xde, 0x27, 0x54, 0xee, 0xc2, 0xe8, 0x0b, 0x00,
  0x2b, 0x11, 0x08, 0x01, 0xaf, 0x2a, 0x00, 0x03, 0xe0, 0x6b, 0xda, 0x96,
  0xb5, 0x44, 0x18, 0x08, 0x00, 0x8d, 0x81, 0x1c, 0x12, 0x08, 0x51, 0x45,
  0x33, 0x01, 0x60, 0xb9, 0x44, 0xa0, 0x52, 0x8c, 0xa4, 0x82, 0x13, 0x1a,
  0x78, 0x05, 0x89, 0x32, 0xad, 0x0b, 0x04, 0x00, 0x5c, 0xf3, 0x13, 0xba,
  0xac, 0xc2, 0xeb, 0x19, 0x20, 0xae, 0x52, 0xfb, 0xcd, 0x38, 0x0e, 0x0c,
  0xd9, 0x08, 0x00, 0xaa, 0xf8, 0xc7, 0x76, 0x42, 0x02, 0xc6, 0x4e, 0x06,
  0x7a, 0xbc, 0xb5, 0x24, 0x00, 0x80, 0xe7, 0x1c, 0xa8, 0x6e, 0xf7, 0x02,
  0x92, 0x8e, 0x8b, 0x02, 0xd0, 0x1f, 0x16, 0xe1, 0x64, 0xa0, 0x00, 0x59,
  0x07, 0xc0, 0xde, 0x5e, 0x0f, 0xad, 0xc3, 0x12, 0x4e, 0xbe, 0xd3, 0x25,
  0x2a, 0x63, 0xfb, 0x07, 0x00, 0xd5, 0x8d, 0x4c, 0x00, 0x4b, 0xbe, 0x4a,
  0x34, 0x00, 0xfc, 0x33, 0xeb, 0xa8, 0x24, 0x00, 0x1e, 0xa0, 0x5a, 0x23,
  0x0f, 0xac, 0x01, 0xa0, 0xc7, 0x78, 0x4c, 0x35, 0x68, 0x84, 0x05, 0x8e,
  0x0e, 0x00, 0x7c, 0x4a, 0x04, 0x56, 0xb3, 0x9d, 0x6f, 0x5d, 0x3f, 0x86,
  0xc0, 0xfe, 0xb3, 0x30, 0x08, 0x00, 0xdf, 0xb7, 0x9d, 0x07, 0x4b, 0x00,
  0x50, 0x5f, 0x9b, 0x71, 0x3e, 0x97, 0x98, 0x41, 0xeb, 0x88, 0x30, 0xae,
  0x3a, 0xa5, 0xdb, 0xff, 0x77, 0xae, 0x2d, 0xca, 0x9c, 0x84, 0xfe, 0xff,
  0xff, 0xff, 0xff, 0x01, 0x00, 0x4c, 0x0a, 0x44, 0xf0, 0xaf, 0x36, 0xa4,
  0xdc, 0xc6, 0x45, 0xa4, 0xff, 0xdf, 0xf8, 0x19, 0xa6, 0xf9, 0x2d, 0xed,
  0xfa, 0xff, 0xff, 0x7f, 0x00, 0xc0, 0x04, 0xf8, 0x93, 0xce, 0xff, 0x3f,
  0x16, 0x4b, 0xfa, 0x86, 0x44, 0xfb, 0xff, 0xaf, 0x34, 0x57, 0x42, 0x64,
  0xff, 0xff, 0x0f, 0x00, 0xc1, 0x11, 0xfb, 0xff, 0xd5, 0x66, 0x8a, 0xcb,
  0x05, 0xfc, 0xff, 0xff, 0xff, 0xff, 0x11, 0xc0, 0xc0, 0x3a, 0x68, 0x81,
  0xe0, 0x63, 0x45, 0x03, 0x78, 0x23, 0x0d, 0x08, 0x00, 0xc0, 0x51, 0xdc,
  0x48, 0x96, 0x44, 0x06, 0x00, 0x38, 0x42, 0x58, 0x9f, 0xf2, 0x0c, 0x5a,
  0x68, 0x25, 0xae, 0x80, 0xa0, 0xb5, 0xe1, 0xd8, 0xa0, 0x20, 0x00, 0x68,
  0x4b, 0x9e, 0x10, 0x56, 0x12, 0x0c, 0x00, 0xc0, 0x43, 0xe6, 0x5e, 0xd6,
  0xbc, 0x60, 0xc2, 0x18, 0x10, 0xd4, 0x54, 0x6d, 0xc5, 0xd2, 0x10, 0xbf,
  0x00, 0x00, 0x00, 0x0c, 0x71, 0x63, 0xfa, 0x91, 0xc3, 0x03, 0x20, 0x01,
  0x3c, 0x2c, 0x84, 0x3a, 0xc3, 0x33, 0xf1, 0x9d, 0x0b, 0x06, 0x80, 0x6e,
  0x15, 0x40, 0xc2, 0x18, 0x1b, 0xe3, 0x80, 0x09, 0xad, 0x1d, 0xe4, 0x3e,
  0xbb, 0x01, 0x01, 0x80, 0x1a, 0x03, 0x6a, 0xca, 0xe6, 0x1b, 0x70, 0xf9,
  0x12, 0x00, 0xea, 0x50, 0x2a, 0xa9, 0xc8, 0x08, 0x87, 0x04, 0x01, 0xc2,
  0x7b, 0xb1, 0x00, 0x20, 0x2b, 0x00, 0x00, 0x18, 0x82, 0x9e, 0xec, 0xb4,
  0x9a, 0x30, 0x3c, 0xe9, 0x10, 0x8f, 0x76, 0xcf, 0x18, 0xc8, 0x60, 0x60,
  0x00, 0x14, 0x2d, 0x50, 0xeb, 0x11, 0xc4, 0x0c, 0x00, 0x20, 0x0b, 0x55,
  0xcd, 0xf5, 0x3d, 0xdf, 0xcd, 0x11, 0x00, 0xdc, 0x5a, 0xd9, 0xdd, 0x8b,
  0x87, 0x82, 0xb5, 0x04, 0x20, 0xfc, 0x04, 0x56, 0x25, 0x79, 0xc1, 0x94,
  0x78, 0x82, 0x08, 0xf0, 0xb3, 0x51, 0x00, 0x00, 0x7c, 0xdc, 0xeb, 0x3a,
  0xd2, 0x06, 0x3d, 0x04, 0xb0, 0xd2, 0x14, 0x94, 0x06, 0xa1, 0xcc, 0x09,
  0x41, 0x04, 0x39, 0x3c, 0x93, 0x9b, 0x8c, 0xca, 0x07, 0x87, 0x62, 0x20,
  0x02, 0x9a, 0x05, 0x17, 0x80, 0x68, 0x43, 0xe9, 0x3c, 0xed, 0x05, 0x02,
  0x03, 0x02, 0xf8, 0x11, 0x5e, 0x44, 0x6d, 0xb1, 0x2e, 0xf4, 0x48, 0xfe,
  0x7f, 0xff, 0xff, 0x75, 0x02, 0xa4, 0xed, 0xdd, 0xff, 0xff, 0x07, 0x80,
  0x03, 0x82, 0x3b, 0xf9, 0xff, 0xeb, 0x04, 0x53, 0x30, 0xbc, 0x23, 0xcb,
  0xff, 0x03, 0x3f, 0xda, 0xb9, 0xed, 0xfd, 0xff, 0xff, 0x03, 0x00, 0x24,
  0x0d, 0xfe, 0xf5, 0x3a, 0xe3, 0x17, 0xb3, 0x3d, 0x33, 0xa0, 0xff, 0xef,
  0xff, 0x23, 0xe4, 0xe9, 0xc1, 0xa0, 0xb4, 0xfb, 0xff, 0x0f, 0x00, 0xc5,
  0x00, 0xff, 0x66, 0xf1, 0xff, 0x17, 0x25, 0xd0, 0xca, 0x71, 0xe9, 0xff,
  0x1b, 0x5a, 0x16, 0x7f, 0x72, 0xfe, 0xff, 0x1f, 0x21, 0xc0, 0x80, 0x01,
  0xa0, 0x12, 0xe1, 0x26, 0x87, 0x3f, 0x07, 0x06, 0x4e, 0x01, 0x40, 0xdb,
  0x5e, 0x12, 0x38, 0x44, 0x01, 0xad, 0x85, 0xb8, 0x00, 0xb8, 0xb5, 0x0c,
  0x1c, 0x64, 0x6d, 0xc7, 0x03, 0x00, 0xb0, 0x32, 0x8a, 0x85, 0xc9, 0x42,
  0x62, 0x62, 0x01, 0xe0, 0x7d, 0x31, 0x94, 0x91, 0x35, 0xeb, 0x09, 0xfe,
  0x66, 0x42, 0xec, 0x1d, 0x56, 0x15, 0x10, 0xb0, 0x3f, 0xaa, 0xd0, 0x62,
  0x4c, 0x17, 0x1f, 0x40, 0xaf, 0x08, 0xf5, 0xcb, 0x25, 0x28, 0x03, 0xf0,
  0x02, 0x8c, 0xeb, 0x02, 0x46, 0x00, 0x00, 0x6c, 0xfc, 0x1a, 0xe7, 0x00,
  0x40, 0x4e, 0x2a, 0x02, 0xc4, 0xef, 0x5c, 0x29, 0x2c, 0x09, 0x59, 0x2f,
  0x53, 0x00, 0x40, 0xab, 0x09, 0x90, 0x62, 0x11, 0x11, 0x4e, 0xc4, 0x04,
  0xac, 0xca, 0x13, 0x00, 0x50, 0x05, 0xdf, 0xed, 0xd9, 0xdc, 0x8f, 0x3a,
  0xdc, 0x57, 0x04, 0x80, 0xfa, 0x01, 0x39, 0xf6, 0x60, 0x00, 0xc0, 0x7e,
  0x6c, 0x88, 0xd5, 0x54, 0xc0, 0xb0, 0xdb, 0x1a, 0xc8, 0x98, 0x33, 0x50,
  0xe4, 0x80, 0x06, 0x00, 0xeb, 0x2a, 0x5d, 0x19, 0xcc, 0x1d, 0x08, 0x0b,
  0x00, 0xeb, 0x13, 0x69, 0xec, 0xed, 0xfa, 0xb2, 0x61, 0x81, 0xc0, 0x07,
  0x28, 0x65, 0xb5, 0x7c, 0x69, 0x6d, 0xbd, 0x6f, 0x6e, 0x05, 0x6e, 0xbd,
  0x93, 0x00, 0x00, 0xff, 0xd6, 0xab, 0xdd, 0x05, 0xbe, 0xcc, 0xe3, 0xc6,
  0xc3, 0x07, 0xd0, 0x00, 0xe2, 0x27, 0xa9, 0xd3, 0x51, 0x02, 0x3f, 0x04,
  0x00, 0x7a, 0x70, 0x4a, 0x42, 0x70, 0x96, 0x3b, 0xfc, 0x00, 0x50, 0xd5,
  0x47, 0x52, 0x25, 0x94, 0x18, 0xd9, 0xa4, 0xb2, 0x54, 0x6b, 0x75, 0x40,
  0x0c, 0x80, 0x27, 0xd9, 0x9d, 0x6c, 0xd6, 0x10, 0x29, 0xc1, 0xff, 0xd7,
  0xb3, 0x0d, 0x2c, 0xbc, 0x85, 0xf9, 0xff, 0x65, 0xa5, 0x64, 0xcc, 0x16,
  0xff, 0xff, 0xff, 0x0f, 0x00, 0x45, 0x00, 0x7f, 0x04, 0xf8, 0xff, 0x72,
  0x5c, 0x80, 0x12, 0x05, 0xf1, 0xff, 0x79, 0x51, 0xc5, 0x2c, 0x50, 0x6e,
  0x56, 0xff, 0xff, 0x0f, 0x00, 0x10, 0x60, 0x23, 0xcb, 0xff, 0xf7, 0x07,
  0x34, 0xa6, 0x06, 0x80, 0x8b, 0xff, 0x3f, 0x9d, 0x3d, 0xca, 0x49, 0xd1,
  0xff, 0xff, 0x3f, 0x00, 0xe0, 0x30, 0xfc, 0x2f, 0x0a, 0xf8, 0xff, 0x25,
  0xad, 0x25, 0xe3, 0xf3, 0xc6, 0xff, 0x0b, 0x49, 0x39, 0x6c, 0x41, 0xa0,
  0xf8, 0xff, 0x0f, 0x00, 0x00, 0x07, 0xdf, 0x1e, 0x12, 0x02, 0xf0, 0x7e,
  0x90, 0x72, 0x2e, 0x00, 0x32, 0x00, 0x8c, 0xda, 0x90, 0x64, 0x4b, 0x6a,
  0x60, 0x05, 0x00, 0xfc, 0x59, 0x01, 0x05, 0x13, 0x8a, 0x7b, 0xc1, 0x30,
  0xc6, 0x4c, 0x4e, 0xfa, 0x40, 0x4a, 0x03, 0x80, 0x06, 0x0b, 0x13, 0x6b,
  0x7b, 0x06, 0x3a, 0x20, 0x28, 0xc0, 0x39, 0xa2, 0x57, 0xec, 0xfe, 0x16,
  0x00, 0x00, 0xf0, 0xdf, 0x20, 0x44, 0x09, 0xbc, 0x2f, 0x09, 0x00, 0x00,
  0xb0, 0x20, 0x49, 0xa1, 0xff, 0x2d, 0x08, 0xc0, 0x05, 0x00, 0xf8, 0xc6,
  0x88, 0x3a, 0xa4, 0x18, 0x22, 0xf2, 0x24, 0xcc, 0x75, 0x97, 0x95, 0x8f,
  0xd5, 0x03, 0x00, 0x17, 0xad, 0xe2, 0x8e, 0x14, 0x23, 0x32, 0x8f, 0x50,
  0x00, 0xe0, 0xb3, 0x4d, 0x89, 0x58, 0x59, 0x49, 0x02, 0x80, 0xa5, 0x52,
  0xf4, 0x48, 0xc9, 0xf3, 0x2d, 0x76, 0xd6, 0xa8, 0xa3, 0xb2, 0x9d, 0xf1,
  0x2d, 0x80, 0x00, 0xf8, 0xd3, 0x8e, 0x2f, 0xaa, 0x44, 0x17, 0x00, 0xc0,
  0x5d, 0xcc, 0xa8, 0x13, 0xce, 0x02, 0x60, 0x82, 0x00, 0xe0, 0xdb, 0x49,
  0x80, 0x0b, 0x45, 0xc0, 0xa8, 0xeb, 0x09, 0xd6, 0xdd, 0x63, 0x80, 0x00,
  0x2d, 0xfb, 0xbe, 0x1a, 0xe6, 0xd2, 0x13, 0xd6, 0x33, 0x09, 0x00, 0x76,
  0x0a, 0xd0, 0x17, 0x12, 0x8c, 0x2a, 0x04, 0xc0, 0x23, 0x56, 0x44, 0xe9,
  0x4b, 0x34, 0xc0, 0xf6, 0xad, 0xb7, 0x08, 0x86, 0x09, 0x40, 0x01, 0xbf,
  0x48, 0x38, 0x07, 0x1d, 0x9c, 0xe8, 0x04, 0x10, 0x85, 0x9f, 0xda, 0x9f,
  0x49, 0xfe, 0xca, 0x01, 0x06, 0xc0, 0xaa, 0x04, 0xb0, 0xf8, 0x85, 0x58,
  0x12, 0x60, 0x00, 0xb0, 0xe5, 0xd4, 0x18, 0x07, 0x89, 0x27, 0x09, 0xff,
  0xff, 0x40, 0x0a, 0x7d, 0x13, 0xd0, 0x79, 0xfe, 0xff, 0x48, 0x76, 0x27,
  0x60, 0x6a, 0xfd, 0xff, 0xff, 0x23, 0x00, 0x3c, 0xe1, 0xff, 0x07, 0x83,
  0xff, 0x1f, 0x94, 0x14, 0x62, 0xe1, 0xff, 0x0f, 0xdf, 0xe3, 0x38, 0x72,
  0x48, 0xcc, 0xff, 0x3f, 0x00, 0x09, 0x00, 0xfc, 0xff, 0xcf, 0x85, 0x4a,
  0x42, 0x84, 0xa3, 0xff, 0xff, 0xff, 0xff, 0x3f, 0x00, 0x08, 0x00, 0x84,
  0xe6, 0xff, 0x77, 0x82, 0x1d, 0x41, 0xbf, 0x59, 0x13, 0xd5, 0xff, 0x17,
  0x00, 0x8b, 0x5e, 0x98, 0xe5, 0xff, 0xff, 0xff, 0x00, 0x50, 0x34, 0x00,
  0xf0, 0xb0, 0xa9, 0xf3, 0xbe, 0x40, 0x29, 0x45, 0x47, 0x00, 0x40, 0x2c,
  0xc2, 0x7e, 0x09, 0x7d, 0x84, 0x0c, 0x00, 0x30, 0x6e, 0x20, 0x0f, 0x88,
  0x80, 0x55, 0x63, 0x18, 0x00, 0x3e, 0x09, 0xb7, 0x47, 0xc2, 0x0b, 0x5b,
  0x81, 0xa5, 0xe6, 0x0c, 0x7b, 0xa2, 0x63, 0x66, 0x00, 0xf8, 0xf2, 0x0a,
  0x52, 0x83, 0x7b, 0x1b, 0x25, 0x2f, 0x80, 0xb8, 0x01, 0x3b, 0x29, 0x92,
  0x93, 0x70, 0x97, 0x6b, 0xf7, 0x80, 0x92, 0xd4, 0x01, 0x00, 0x97, 0x0e,
  0x9e, 0x09, 0xfa, 0x04, 0xc0, 0x01, 0x60, 0xb5, 0x24, 0xcd, 0x1c, 0x56,
  0x1c, 0x04, 0x00, 0x3d, 0xd0, 0x21, 0x28, 0x8d, 0x8c, 0x52, 0x21, 0xbd,
  0x04, 0x44, 0xc3, 0x15, 0x16, 0xd8, 0x04, 0x10, 0xa8, 0x8a, 0xb7, 0x7b,
  0x0c, 0xa0, 0x46, 0x41, 0x00, 0x9f, 0x69, 0xda, 0x7f, 0x99, 0x60, 0x79,
  0x18, 0x00, 0xaa, 0x51, 0x5a, 0x93, 0xed, 0x82, 0x94, 0xf8, 0x14, 0xd7,
  0xf8, 0x6c, 0x81, 0x06, 0x5c, 0x42, 0xf0, 0x9b, 0x48, 0xb9, 0xe7, 0x06,
  0x29, 0x00, 0x00, 0x27, 0xc0, 0x98, 0x03, 0x06, 0x08, 0x0a, 0x84, 0xf8,
  0x6a, 0xd5, 0x86, 0x48, 0x57, 0x16, 0xb4, 0x43, 0x4b, 0x14, 0x78, 0x57,
  0x46, 0x04, 0xc0, 0x32, 0x59, 0xba, 0xe1, 0x22, 0xe8, 0xfa, 0x77, 0x7f,
  0x00, 0xd0, 0x6a, 0x5b, 0xaa, 0xb5, 0x25, 0x30, 0xcf, 0xe4, 0x96, 0x92,
  0x01, 0x00, 0x00, 0x90, 0x2c, 0x04, 0x8c, 0xf9, 0xaf, 0xf7, 0x03, 0x40,
  0xb5, 0x22, 0x15, 0x41, 0x12, 0x5a, 0x29, 0x95, 0x15, 0xa9, 0x10, 0xa0,
  0x41, 0xf8, 0xbe, 0xcc, 0x9b, 0x71, 0x4f, 0xc8, 0x56, 0x34, 0x1d, 0x74,
  0x84, 0x00, 0x80, 0xd3, 0x7b, 0x64, 0xbf, 0x2f, 0x84, 0x01, 0xff, 0x76,
  0x5f, 0x4b, 0x25, 0x69, 0xd8, 0x68, 0xe9, 0xff, 0x37, 0x3a, 0xcf, 0xb9,
  0x26, 0x57, 0xf9, 0x7f, 0x76, 0xd1, 0x43, 0x66, 0x80, 0xff, 0xff, 0x07,
  0x00, 0x40, 0x80, 0xff, 0x4f, 0xf5, 0x79, 0xdf, 0x80, 0x3a, 0x56, 0xfd,
  0xff, 0xff, 0xff, 0x7f, 0x00, 0x10, 0x81, 0x35, 0x01, 0xfe, 0x6f, 0x2a,
  0x6b, 0x4f, 0x48, 0x89, 0xa4, 0xff, 0x57, 0xad, 0xd6, 0x3e, 0x69, 0xd2,
  0xff, 0xff, 0xff, 0x0f, 0xf0, 0x62, 0x10, 0xbf, 0x87, 0xf8, 0xff, 0x5f,
  0xcf, 0x23, 0x8f, 0xc6, 0xff, 0xe7, 0x48, 0xc2, 0x07, 0x1e, 0x93, 0xff,
  0xff, 0x07, 0xe0, 0x00, 0x80, 0xd1, 0x01, 0x10, 0xbc, 0x8d, 0xe5, 0x20,
  0x77, 0x38, 0xca, 0x09, 0x00, 0x40, 0xc7, 0x94, 0xcd, 0xae, 0xcf, 0xe7,
  0x2c, 0x00, 0xcc, 0x0f, 0xe3, 0x08, 0x8d, 0x71, 0x0c, 0x32, 0xc1, 0xae,
  0xab, 0xf8, 0x74, 0x6a, 0x00, 0x00, 0x80, 0x46, 0x09, 0x61, 0xa5, 0x03,
  0x31, 0x02, 0x00, 0xd0, 0x25, 0x77, 0xd9, 0x53, 0xf0, 0xbb, 0x12, 0x0d,
  0x12, 0x01, 0x7a, 0x17, 0x4c, 0xa4, 0xdb, 0x41, 0x5c, 0x0a, 0x00, 0x40,
  0x72, 0xb7, 0xa4, 0x2f, 0x30, 0x32, 0xa0, 0x0b, 0x80, 0xcf, 0x9e, 0x09,
  0xd1, 0x77, 0x5a, 0x67, 0x04, 0xe2, 0x41, 0x40, 0xf8, 0x76, 0x16, 0x01,
  0x60, 0x76, 0x1a, 0x5d, 0x74, 0x83, 0x0a, 0xf3, 0x34, 0x30, 0x40, 0x2b,
  0xa6, 0x12, 0xb2, 0x49, 0xb0, 0x5e, 0x2c, 0x00, 0x70, 0x15, 0x51, 0x63,
  0xd3, 0x2a, 0xf9, 0x6f, 0x32, 0x00, 0xd8, 0x85, 0xe8, 0x2f, 0x29, 0xe3,
  0x23, 0xe0, 0x1d, 0x74, 0xe4, 0xc9, 0xb3, 0x84, 0x00, 0xbc, 0x04, 0xc5,
  0x1c, 0x85, 0x04, 0xa8, 0x2c, 0x00, 0x00, 0x3d, 0xe7, 0xa6, 0x82, 0x98,
  0x02, 0x23, 0x00, 0xb9, 0xa1, 0x9b, 0xa9, 0xf8, 0x58, 0xec, 0xac, 0x00,
  0x00, 0xfd, 0x17, 0xe6, 0x2a, 0x99, 0x56, 0x4e, 0xa4, 0x0b, 0x5f, 0xcc,
  0xab, 0xa3, 0x01, 0x76, 0x04, 0xa0, 0xda, 0x4b, 0x48, 0xd9, 0xac, 0x61,
  0x01, 0x80, 0xd0, 0xf2, 0x87, 0x35, 0x0a, 0x4b, 0x3a, 0x02, 0x80, 0x1b,
  0xf8, 0x1b, 0xc0, 0x41, 0xe6, 0x44, 0x88, 0x70, 0xb9, 0x2d, 0x45, 0xc7,
  0x1b, 0x00, 0x50, 0xdb, 0xc1, 0x4f, 0x55, 0x56, 0x00, 0x6c, 0x70, 0x0a,
  0x00, 0x00, 0x4b, 0xf9, 0x84, 0x5a, 0xb1, 0x8e, 0x90, 0x83, 0xff, 0x2b,
  0x4c, 0x5f, 0xcc, 0xbc, 0x09, 0xf4, 0xff, 0x5f, 0x45, 0x12, 0x67, 0xc7,
  0xfc, 0xff, 0xff, 0x3f, 0xc0, 0x00, 0x03, 0x7c, 0x4f, 0xe8, 0xff, 0x7f,
  0x22, 0x0c, 0x45, 0xa9, 0x85, 0xf4, 0xff, 0xc7, 0x68, 0xda, 0xd9, 0xfd,
  0xff, 0x7f, 0xf0, 0x10, 0x80, 0xf8, 0x81, 0xf3, 0xff, 0x8b, 0xe2, 0x97,
  0x68, 0xbd, 0xff, 0x27, 0x2d, 0x2e, 0x94, 0xeb, 0x2a, 0xff, 0xff, 0xff,
  0x00, 0x00, 0x04, 0xe1, 0xff, 0x1d, 0x60, 0xff, 0x59, 0x91, 0x50, 0x55,
  0x99, 0xff, 0xdf, 0xff, 0x7f, 0xf4, 0x31, 0x25, 0x03, 0xff, 0xff, 0x01,
  0x6a, 0x0e, 0x00, 0xee, 0x43, 0xd7, 0x13, 0xd9, 0x08, 0x68, 0x56, 0x0c,
  0x00, 0x5d, 0x69, 0xd5, 0x3c, 0xd1, 0x00, 0x0c, 0x00, 0x64, 0xe2, 0x3b,
  0x6a, 0x08, 0x30, 0x40, 0x00, 0x38, 0x18, 0x60, 0x14, 0x52, 0x89, 0xf1,
  0x3d, 0x05, 0x0c, 0xe5, 0x71, 0xa0, 0x76, 0x30, 0x13, 0x8b, 0x00, 0x2e,
  0x23, 0x4c, 0x9c, 0x55, 0x6b, 0x9a, 0x0e, 0x07, 0x00, 0x7d, 0x2f, 0x3a,
  0xcd, 0x30, 0x6f, 0xa7, 0xec, 0x28, 0x94, 0x3c, 0x3b, 0x28, 0xd4, 0x00,
  0xf8, 0x4e, 0x10, 0x81, 0x3b, 0x2a, 0x00, 0x10, 0xb9, 0xe6, 0x7b, 0xde,
  0x96, 0xa6, 0x00, 0x00, 0x2b, 0x4c, 0x5f, 0x04, 0x18, 0x52, 0xa0, 0x4a,
  0xfe, 0xd3, 0x8d, 0xbf, 0x0c, 0xd6, 0x42, 0x53, 0x00, 0xb0, 0x89, 0x01,
  0x90, 0xf1, 0x71, 0x30, 0x00, 0xa0, 0x84, 0xc0, 0x95, 0x9c, 0x2d, 0x3a,
  0x1c, 0x00, 0xb6, 0x7d, 0xa0, 0xa2, 0x01, 0xa8, 0xa5, 0x0b, 0xd3, 0xfb,
  0x83, 0xc6, 0x78, 0x2f, 0x0a, 0x02, 0xe0, 0xab, 0x3e, 0xd4, 0x1a, 0xa5,
  0x30, 0x09, 0x00, 0xaf, 0x77, 0xdd, 0x60, 0x10, 0x54, 0x46, 0xc4, 0x89,
  0x38, 0x6a, 0xc3, 0xc5, 0xa0, 0x00, 0x00, 0x5e, 0x82, 0xb9, 0xf5, 0x14,
  0x32, 0xc0, 0x03, 0x00, 0xd5, 0x4a, 0x24, 0x2d, 0xdb, 0x21, 0x1b, 0xaf,
  0x03, 0xc0, 0xae, 0x4e, 0xba, 0xd8, 0x47, 0x26, 0x67, 0xf6, 0xf3, 0x1a,
  0x59, 0xa9, 0x6b, 0x06, 0x0a, 0x00, 0x9c, 0x9d, 0x77, 0x3b, 0x02, 0x00,
  0x13, 0x88, 0x23, 0xb8, 0x99, 0x00, 0x00, 0x18, 0x18, 0x51, 0x16, 0x3a,
  0x41, 0x64, 0xf3, 0xfd, 0xad, 0x45, 0x20, 0x00, 0x30, 0xd5, 0xbc, 0xe7,
  0xe6, 0x00, 0xc0, 0xb5, 0xb0, 0xeb, 0x4d, 0xd0, 0xaa, 0xfb, 0x06, 0x0c,
  0xcd, 0x8b, 0xda, 0xa8, 0x1b, 0x00, 0x12, 0x5d, 0x49, 0x15, 0x13, 0x74,
  0x41, 0x10, 0x72, 0x17, 0xfc, 0xff, 0xfd, 0x8c, 0xbd, 0xa4, 0x04, 0xc0,
  0xf7, 0xff, 0x49, 0x44, 0xa6, 0x34, 0x28, 0xfe, 0xff, 0xff, 0x01, 0x40,
  0x29, 0xe0, 0xff, 0x95, 0xe2, 0xff, 0x9f, 0xfc, 0xc2, 0xf1, 0x5b, 0xe5,
  0xff, 0xb3, 0xd3, 0xbc, 0x7d, 0x71, 0xfe, 0xff, 0x01, 0xc8, 0x11, 0xe0,
  0x37, 0x7c, 0xfe, 0xff, 0x9d, 0xaa, 0xc0, 0x79, 0x2a, 0xf6, 0xff, 0x20,
  0x57, 0xdd, 0x8e, 0xf9, 0xff, 0x7f, 0x00, 0x00, 0x50, 0x7c, 0x81, 0xfe,
  0xff, 0x93, 0x0c, 0x8e, 0x04, 0x51, 0xa8, 0xff, 0x07, 0xca, 0xcc, 0x80,
  0x08, 0xf9, 0xff, 0xff, 0xc7, 0x00, 0x40, 0x07, 0x80, 0x07, 0x19, 0x00,
  0xd8, 0xf3, 0x68, 0xb9, 0x24, 0x0a, 0xb0, 0x94, 0x3f, 0x43, 0x79, 0x6b,
  0xb4, 0x24, 0x01, 0x20, 0x68, 0xa9, 0x73, 0xca, 0x51, 0x41, 0x26, 0x16,
  0x20, 0x00, 0xb0, 0x39, 0x59, 0xa0, 0xa3, 0x0a, 0x2e, 0x14, 0x20, 0xf8,
  0x91, 0xc8, 0x7f, 0xb1, 0x8f, 0x76, 0x91, 0x38, 0x00, 0xc0, 0xa6, 0x0e,
  0x12, 0x9c, 0x2a, 0x4d, 0x34, 0x20, 0x74, 0x0f, 0x8f, 0xa0, 0x00, 0xe1,
  0x92, 0x00, 0xbe, 0x51, 0x1a, 0xf2, 0x8c, 0x03, 0xc0, 0x46, 0x46, 0xc0,
  0xb3, 0xc4, 0x42, 0x64, 0x12, 0x92, 0x19, 0x01, 0xa0, 0x2e, 0xdc, 0x3d,
  0x26, 0xd5, 0x91, 0x1d, 0x01, 0x04, 0xe0, 0x9b, 0x48, 0x78, 0x12, 0x03,
  0x84, 0x27, 0x00, 0xe8, 0xe7, 0x14, 0x83, 0xd9, 0xc0, 0x03, 0x34, 0x82,
  0x01, 0x80, 0x07, 0x38, 0x08, 0xaf, 0x93, 0x62, 0xe9, 0x0f, 0xc3, 0x11,
  0x61, 0xfd, 0x1f, 0x00, 0x04, 0x18, 0x37, 0x0b, 0x80, 0x15, 0x00, 0x81,
  0x20, 0x20, 0x22, 0x89, 0xd4, 0x40, 0x82, 0x05, 0x04, 0x38, 0x00, 0x60,
  0xc2, 0x18, 0xe2, 0x45, 0x8c, 0xcf, 0x00, 0x1e, 0x84, 0x81, 0x49, 0x83,
  0xb1, 0x9a, 0x1c, 0x63, 0xc0, 0x16, 0x80, 0x80, 0x85, 0x60, 0xf9, 0x4c,
  0x1e, 0x48, 0x17, 0x0c, 0x10, 0x1d, 0x6a, 0xa8, 0x24, 0x81, 0x56, 0x03,
  0xa0, 0xe3, 0x27, 0x52, 0x1e, 0x01, 0x00, 0x10, 0x52, 0xa0, 0x62, 0x98,
  0x11, 0x15, 0x04, 0xa0, 0x18, 0x86, 0x00, 0x4d, 0x9e, 0x49, 0xc4, 0x51,
  0x16, 0x22, 0x8c, 0x50, 0x00, 0x78, 0x11, 0xd3, 0x01, 0x46, 0x8b, 0x04,
  0x10, 0x00, 0x9f, 0xcd, 0xb5, 0x80, 0x50, 0xb6, 0x55, 0xfe, 0x7f, 0x8f,
  0x32, 0xac, 0x88, 0xc5, 0x59, 0x4f, 0xff, 0x3f, 0xc1, 0x64, 0x11, 0x55,
  0xfe, 0xff, 0x1f, 0x00, 0x19, 0x00, 0x46, 0x12, 0xff, 0xff, 0x60, 0x2c,
  0x08, 0x44, 0x0a, 0x60, 0xfe, 0xdf, 0x86, 0x12, 0xef, 0x78, 0x03, 0xfd,
  0xff, 0xff, 0x83, 0xc0, 0x80, 0xc1, 0xff, 0xfd, 0xff, 0x0c, 0x1b, 0x47,
  0xc5, 0xcb, 0xfc, 0xff, 0xff, 0x7f, 0x00, 0x80, 0x03, 0xf8, 0x01, 0xe4,
  0xff, 0xbf, 0x18, 0xa0, 0xa2, 0x40, 0x72, 0xe0, 0xff, 0x33, 0x92, 0x6f,
  0x2c, 0x86, 0x70, 0xfb, 0xff, 0xff, 0x00, 0x00, 0x8b, 0xe7, 0x05, 0x75,
  0x00, 0xb8, 0xda, 0x46, 0x30, 0x6a, 0x11, 0x86, 0x35, 0x19, 0xdc, 0xbd,
  0x82, 0x01, 0x40, 0x51, 0x4c, 0x1a, 0x04, 0x40, 0x09, 0xc0, 0x58, 0x08,
  0x05, 0x81, 0x1b, 0x70, 0x80, 0x63, 0x13, 0x99, 0x06, 0x49, 0x00, 0x72,
  0x71, 0x44, 0x12, 0x73, 0x6c, 0x22, 0x18, 0x00, 0xb0, 0x22, 0x95, 0x16,
  0xbb, 0x4d, 0xd5, 0x04, 0x00, 0xf0, 0x81, 0x00, 0x60, 0x54, 0x13, 0x9f,
  0xcb, 0x48, 0x0b, 0xd2, 0xfc, 0x98, 0x60, 0x0e, 0x00, 0x00, 0x94, 0x3b,
  0xec, 0x04, 0xb9, 0xe5, 0x48, 0x03, 0x00, 0x8e, 0x0e, 0x39, 0x8a, 0x20,
  0x8a, 0x84, 0x83, 0x48, 0x00, 0x61, 0x4a, 0xa2, 0x11, 0xe4, 0x70, 0x53,
  0x52, 0x00, 0xf4, 0xc9, 0xc1, 0x3e, 0x28, 0x01, 0x80, 0x82, 0x80, 0xb5,
  0x8c, 0x55, 0x72, 0x0e, 0x00, 0x26, 0x28, 0x32, 0x2d, 0x92, 0x28, 0x86,
  0x02, 0x9f, 0x16, 0x00, 0xc8, 0x8e, 0xf2, 0xac, 0x80, 0x8c, 0x24, 0x40,
  0x00, 0x00, 0x5a, 0xfb, 0x70, 0x0a, 0x39, 0x07, 0x00, 0x01, 0xe0, 0x39,
  0x86, 0x20, 0x4b, 0x3a, 0x06, 0xad, 0x05, 0x01, 0x00, 0xd8, 0x64, 0x23,
  0xf7, 0xec, 0xc4, 0xf0, 0xef, 0x61, 0x00, 0x78, 0x0d, 0x2d, 0xc8, 0x03,
  0xb1, 0x1a, 0xe3, 0x42, 0xe3, 0xcc, 0x44, 0x21, 0xc1, 0x2b, 0x05, 0x00,
  0xf1, 0xe6, 0xc3, 0x5e, 0x4f, 0x4b, 0x03, 0x80, 0x00, 0xd4, 0x62, 0xc8,
  0x1e, 0xdc, 0x96, 0x25, 0x02, 0x00, 0xf8, 0x10, 0x03, 0x02, 0x24, 0xcb,
  0x3d, 0x5f, 0x14, 0x00, 0xf0, 0xa7, 0x22, 0xd0, 0x2d, 0x9d, 0x1a, 0xb5,
  0xc0, 0x4e, 0x1c, 0x6a, 0x3b, 0x71, 0x0c, 0xa0, 0x00, 0xd4, 0xa4, 0x41,
  0x51, 0x7e, 0x87, 0xd5, 0x0c, 0xfc, 0x5b, 0x5e, 0x7c, 0xac, 0x0a, 0x78,
  0xf9, 0xff, 0xff, 0xd0, 0xc4, 0x3c, 0x70, 0x85, 0xf9, 0xff, 0xff, 0x7f,
  0x00, 0x60, 0x00, 0xf8, 0x10, 0xe3, 0xff, 0x67, 0x22, 0x1c, 0x28, 0x37,
  0x85, 0x55, 0xf9, 0x7f, 0x54, 0x0d, 0x52, 0x7a, 0x01, 0xc1, 0xfe, 0xff,
  0x1f, 0x00, 0x80, 0x48, 0xfe, 0xff, 0xff, 0x5f, 0xa6, 0xa1, 0xa6, 0x67,
  0xf0, 0xfe, 0xff, 0xff, 0x01, 0x00, 0x1c, 0x0a, 0x00, 0x67, 0x01, 0x0c,
  0x48, 0x1e, 0x00, 0xa0, 0x00, 0xc0, 0x0f, 0xc2, 0xff, 0xff, 0xff, 0xff,
  0xff, 0xff, 0xff, 0xff, 0x88, 0x01, 0x00, 0x00, 0x00, 0xc1, 0x62, 0x5e,
  0x60, 0x26, 0x00, 0x00, 0x00, 0x00, 0x00, 0x00, 0x42, 0x00, 0xe8, 0x9f,
  0xec, 0xdf, 0xf6, 0x85, 0x25, 0xf4, 0xc3, 0xa3, 0x93, 0x63, 0xf3, 0x08,
  0x00, 0x2f, 0xff, 0x07, 0x8e, 0x6c, 0x00, 0x00, 0x18, 0x00, 0x40, 0x05,
  0xc0, 0xbf, 0x7f, 0xff, 0xfc, 0xff, 0xff, 0xff, 0xff, 0xff, 0xff, 0xff,
  0xff, 0xff, 0xff, 0xff, 0xff, 0xff, 0xff, 0xff, 0x00, 0x00, 0x00, 0x00,
  0x00, 0x00, 0x00, 0x00, 0x00, 0x00, 0x00, 0x00, 0x00, 0x00, 0x06, 0x00,
  0x08, 0x00, 0x04, 0x00, 0x06, 0x00, 0x00, 0x00, 0x04, 0x00, 0x00, 0x00,
  0x30, 0x05, 0x00, 0x00, 0x43, 0x4f, 0x50, 0x31, 0x01, 0x00, 0x10, 0x00,
  0x06, 0x10, 0x00, 0x00, 0x00, 0x00, 0x06, 0x10, 0x05, 0x00, 0x00, 0x00,
  0x05, 0x00, 0x00, 0x00, 0x05, 0x00, 0x00, 0x00, 0x02, 0x00, 0x44, 0x01,
  0x30, 0x01, 0x00, 0x00, 0x30, 0x40, 0x00, 0x00, 0x60, 0x05, 0x00, 0x00,
  0x31, 0x01, 0x01, 0x00, 0x31, 0x40, 0x00, 0x00, 0x30, 0x00, 0x00, 0x00,
  0x32, 0x40, 0x00, 0x00, 0x00, 0x01, 0x00, 0x00, 0x10, 0x00, 0x00, 0x00,
  0x0f, 0x01, 0x01, 0x00, 0x00, 0x40, 0x00, 0x00, 0x00, 0x00, 0x00, 0x00,
  0x01, 0x40, 0x00, 0x00, 0x00, 0x00, 0x00, 0x00, 0x02, 0x40, 0x00, 0x00,
  0x00, 0x00, 0x00, 0x00, 0x03, 0x40, 0x00, 0x00, 0x00, 0x00, 0x00, 0x00,
  0x0b, 0x01, 0x00, 0x00, 0x0c, 0x01, 0x00, 0x00, 0x0a, 0x01, 0x27, 0x00,
  0x04, 0x01, 0x00, 0x00, 0x06, 0x40, 0x00, 0x00, 0x01, 0x00, 0x00, 0x00,
  0x05, 0x40, 0x00, 0x00, 0x28, 0x00, 0x00, 0x00, 0x04, 0x40, 0x00, 0x00,
  0x01, 0x00, 0x00, 0x00, 0x09, 0x01, 0xef, 0xff, 0x05, 0x01, 0x01, 0x00,
  0x07, 0x01, 0x00, 0x00, 0x00, 0x01, 0x00, 0x00, 0x01, 0x01, 0x01, 0x00,
  0x03, 0x01, 0x00, 0x00, 0x02, 0x01, 0x01, 0x00, 0x1f, 0x01, 0x01, 0x00,
  0x10, 0x40, 0x00, 0x00, 0x80, 0x02, 0x00, 0x00, 0x11, 0x40, 0x00, 0x00,
  0x00, 0x00, 0x00, 0x00, 0x12, 0x40, 0x00, 0x00, 0x00, 0x00, 0x00, 0x00,
  0x13, 0x40, 0x00, 0x00, 0x00, 0x00, 0x00, 0x00, 0x1b, 0x01, 0x00, 0x00,
  0x1c, 0x01, 0x00, 0x00, 0x1a, 0x01, 0x27, 0x00, 0x12, 0x01, 0x00, 0x00,
  0x11, 0x01, 0x27, 0x00, 0x13, 0x01, 0x0f, 0x00, 0x16, 0x40, 0x00, 0x00,
  0x01, 0x00, 0x00, 0x00, 0x15, 0x40, 0x00, 0x00, 0x00, 0x05, 0x00, 0x00,
  0x14, 0x40, 0x00, 0x00, 0x20, 0x00, 0x00, 0x00, 0x18, 0x01, 0x80, 0xff,
  0x14, 0x01, 0x01, 0x00, 0x21, 0x01, 0x00, 0x00, 0x20, 0x01, 0x02, 0x00,
  0x22, 0x01, 0x04, 0x00, 0x28, 0x01, 0x01, 0x00, 0x20, 0x40, 0x00, 0x00,
  0xd0, 0x00, 0x00, 0x00, 0x21, 0x40, 0x00, 0x00, 0x60, 0x00, 0x00, 0x00,
  0x29, 0x01, 0x01, 0x00, 0x22, 0x40, 0x00, 0x00, 0x30, 0x00, 0x00, 0x00,
  0x23, 0x40, 0x00, 0x00, 0xa0, 0x00, 0x00, 0x00, 0x25, 0x01, 0x00, 0x00,
  0x26, 0x01, 0x80, 0xff, 0x27, 0x01, 0x7f, 0x00, 0x16, 0x01, 0x00, 0x00,
  0x15, 0x01, 0x27, 0x00, 0x17, 0x01, 0x1f, 0x00, 0x0d, 0x01, 0x04, 0x00,
  0x2d, 0x01, 0x04, 0x00, 0x24, 0x01, 0x00, 0x00, 0x2f, 0x01, 0x00, 0x00,
  0x11, 0x00, 0x00, 0x00, 0x02, 0x00, 0x00, 0x00, 0x30, 0x40, 0x00, 0x00,
  0x60, 0x06, 0x00, 0x00, 0x31, 0x40, 0x00, 0x00, 0x30, 0x01, 0x00, 0x00,
  0x10, 0x00, 0x00, 0x00, 0x10, 0x40, 0x00, 0x00, 0x90, 0x02, 0x00, 0x00,
  0x20, 0x40, 0x00, 0x00, 0xd0, 0x01, 0x00, 0x00, 0x22, 0x40, 0x00, 0x00,
  0x30, 0x01, 0x00, 0x00, 0x2f, 0x01, 0x03, 0x00, 0x11, 0x00, 0x00, 0x00,
  0x02, 0x00, 0x00, 0x00, 0x00, 0x40, 0x00, 0x00, 0x80, 0x02, 0x00, 0x00,
  0x0b, 0x01, 0x27, 0x00, 0x0c, 0x01, 0x27, 0x00, 0x0a, 0x01, 0x00, 0x00,
  0x04, 0x01, 0x1f, 0x00, 0x05, 0x40, 0x00, 0x00, 0x20, 0x00, 0x00, 0x00,
  0x04, 0x40, 0x00, 0x00, 0x20, 0x00, 0x00, 0x00, 0x09, 0x01, 0x80, 0xff,
  0x01, 0x01, 0x00, 0x00, 0x02, 0x01, 0x00, 0x00, 0x10, 0x40, 0x00, 0x00,
  0x00, 0x00, 0x00, 0x00, 0x1b, 0x01, 0x13, 0x00, 0x1c, 0x01, 0x13, 0x00,
  0x1a, 0x01, 0x00, 0x00, 0x12, 0x01, 0x13, 0x00, 0x11, 0x01, 0x00, 0x00,
  0x13, 0x01, 0x1f, 0x00, 0x15, 0x40, 0x00, 0x00, 0x20, 0x00, 0x00, 0x00,
  0x21, 0x01, 0x01, 0x00, 0x20, 0x01, 0x00, 0x00, 0x22, 0x01, 0x02, 0x00,
  0x16, 0x01, 0x0a, 0x00, 0x15, 0x01, 0x00, 0x00, 0x2d, 0x01, 0x0c, 0x00,
  0x2f, 0x01, 0x00, 0x00, 0x05, 0x00, 0x00, 0x00, 0x30, 0x40, 0x00, 0x00,
  0x60, 0x07, 0x00, 0x00, 0x31, 0x40, 0x00, 0x00, 0x80, 0x07, 0x00, 0x00,
  0x32, 0x40, 0x00, 0x00, 0xc0, 0x05, 0x00, 0x00, 0x10, 0x00, 0x00, 0x00,
  0x00, 0x40, 0x00, 0x00, 0x00, 0x00, 0x00, 0x00, 0x0b, 0x01, 0x00, 0x00,
  0x0c, 0x01, 0x00, 0x00, 0x0a, 0x01, 0x13, 0x00, 0x05, 0x40, 0x00, 0x00,
  0x80, 0x02, 0x00, 0x00, 0x01, 0x01, 0x01, 0x00, 0x02, 0x01, 0x01, 0x00,
  0x10, 0x40, 0x00, 0x00, 0x80, 0x02, 0x00, 0x00, 0x1b, 0x01, 0x00, 0x00,
  0x1c, 0x01, 0x00, 0x00, 0x1a, 0x01, 0x13, 0x00, 0x12, 0x01, 0x00, 0x00,
  0x11, 0x01, 0x13, 0x00, 0x13, 0x01, 0x0f, 0x00, 0x15, 0x40, 0x00, 0x00,
  0x00, 0x05, 0x00, 0x00, 0x14, 0x40, 0x00, 0x00, 0x40, 0x00, 0x00, 0x00,
  0x21, 0x01, 0x00, 0x00, 0x20, 0x01, 0x02, 0x00, 0x22, 0x01, 0x00, 0x00,
  0x20, 0x40, 0x00, 0x00, 0x20, 0x08, 0x00, 0x00, 0x21, 0x40, 0x00, 0x00,
  0x20, 0x05, 0x00, 0x00, 0x22, 0x40, 0x00, 0x00, 0x80, 0x07, 0x00, 0x00,
  0x16, 0x01, 0x00, 0x00, 0x15, 0x01, 0x13, 0x00, 0x17, 0x01, 0x3f, 0x00,
  0x2d, 0x01, 0x04, 0x00, 0x11, 0x00, 0x00, 0x00, 0x02, 0x00, 0x00, 0x00,
  0x30, 0x40, 0x00, 0x00, 0x20, 0x0d, 0x00, 0x00, 0x31, 0x40, 0x00, 0x00,
  0x40, 0x0d, 0x00, 0x00, 0x32, 0x40, 0x00, 0x00, 0x30, 0x11, 0x00, 0x00,
  0x10, 0x00, 0x00, 0x00, 0x10, 0x40, 0x00, 0x00, 0x90, 0x02, 0x00, 0x00,
  0x13, 0x01, 0x2f, 0x00, 0x20, 0x40, 0x00, 0x00, 0x20, 0x0f, 0x00, 0x00,
  0x21, 0x40, 0x00, 0x00, 0x50, 0x0f, 0x00, 0x00, 0x22, 0x40, 0x00, 0x00,
  0x40, 0x0d, 0x00, 0x00, 0x23, 0x40, 0x00, 0x00, 0xe0, 0x01, 0x00, 0x00,
  0x2f, 0x01, 0x03, 0x00, 0x11, 0x00, 0x00, 0x00, 0x02, 0x00, 0x00, 0x00,
  0x00, 0x40, 0x00, 0x00, 0x80, 0x02, 0x00, 0x00, 0x0b, 0x01, 0x13, 0x00,
  0x0c, 0x01, 0x13, 0x00, 0x0a, 0x01, 0x00, 0x00, 0x04, 0x01, 0x3f, 0x00,
  0x05, 0x40, 0x00, 0x00, 0x40, 0x00, 0x00, 0x00, 0x04, 0x40, 0x00, 0x00,
  0x40, 0x00, 0x00, 0x00, 0x01, 0x01, 0x00, 0x00, 0x02, 0x01, 0x00, 0x00,
  0x10, 0x40, 0x00, 0x00, 0x00, 0x00, 0x00, 0x00, 0x1b, 0x01, 0x09, 0x00,
  0x1c, 0x01, 0x09, 0x00, 0x1a, 0x01, 0x00, 0x00, 0x12, 0x01, 0x09, 0x00,
  0x11, 0x01, 0x00, 0x00, 0x13, 0x01, 0x3f, 0x00, 0x15, 0x40, 0x00, 0x00,
  0x40, 0x00, 0x00, 0x00, 0x21, 0x01, 0x01, 0x00, 0x20, 0x01, 0x00, 0x00,
  0x22, 0x01, 0x02, 0x00, 0x16, 0x01, 0x06, 0x00, 0x15, 0x01, 0x00, 0x00,
  0x17, 0x01, 0x2f, 0x00, 0x2d, 0x01, 0x0c, 0x00, 0x2f, 0x01, 0x00, 0x00,
  0x05, 0x00, 0x00, 0x00, 0x00, 0x40, 0x00, 0x00, 0x00, 0x00, 0x00, 0x00,
  0x0b, 0x01, 0x00, 0x00, 0x0c, 0x01, 0x00, 0x00, 0x04, 0x01, 0x7f, 0x02,
  0x05, 0x40, 0x00, 0x00, 0x80, 0x02, 0x00, 0x00, 0x04, 0x40, 0x00, 0x00,
  0x80, 0x02, 0x00, 0x00, 0x10, 0x40, 0x00, 0x00, 0x80, 0x02, 0x00, 0x00,
  0x1b, 0x01, 0x00, 0x00, 0x1c, 0x01, 0x00, 0x00, 0x12, 0x01, 0x00, 0x00,
  0x13, 0x01, 0x09, 0x00, 0x16, 0x40, 0x00, 0x00, 0x10, 0x00, 0x00, 0x00,
  0x15, 0x40, 0x00, 0x00, 0x10, 0x00, 0x00, 0x00, 0x14, 0x40, 0x00, 0x00,
  0x10, 0x00, 0x00, 0x00, 0x14, 0x01, 0x41, 0x00, 0x21, 0x01, 0x00, 0x00,
  0x22, 0x01, 0x00, 0x00, 0x28, 0x01, 0x00, 0x00, 0x20, 0x40, 0x00, 0x00,
  0xc0, 0x1e, 0x00, 0x00, 0x21, 0x40, 0x00, 0x00, 0xb0, 0x19, 0x00, 0x00,
  0x29, 0x01, 0x00, 0x00, 0x22, 0x40, 0x00, 0x00, 0x50, 0x1e, 0x00, 0x00,
  0x23, 0x40, 0x00, 0x00, 0x70, 0x00, 0x00, 0x00, 0x16, 0x01, 0x00, 0x00,
  0x17, 0x01, 0x0f, 0x00, 0x2f, 0x01, 0x03, 0x00, 0x02, 0x00, 0x00, 0x00,
  0x00, 0x40, 0x00, 0x00, 0x80, 0x02, 0x00, 0x00, 0x04, 0x01, 0x09, 0x00,
  0x06, 0x40, 0x00, 0x00, 0x10, 0x00, 0x00, 0x00, 0x05, 0x40, 0x00, 0x00,
  0x10, 0x00, 0x00, 0x00, 0x04, 0x40, 0x00, 0x00, 0x10, 0x00, 0x00, 0x00,
  0x05, 0x01, 0x41, 0x00, 0x10, 0x40, 0x00, 0x00, 0x00, 0x00, 0x00, 0x00,
  0x13, 0x01, 0x00, 0x00, 0x18, 0x01, 0x38, 0x00, 0x20, 0x40, 0x00, 0x00,
  0x80, 0x38, 0x00, 0x00, 0x21, 0x40, 0x00, 0x00, 0x30, 0x00, 0x00, 0x00,
  0x22, 0x40, 0x00, 0x00, 0x70, 0x38, 0x00, 0x00, 0x23, 0x40, 0x00, 0x00,
